{
  "version": "1.0",
  "truncation": null,
  "padding": null,
  "added_tokens": [
    {
      "id": 0,
      "content": "[UNK]",
      "single_word": false,
      "lstrip": false,
      "rstrip": false,
      "normalized": false,
      "special": true
    },
    {
      "id": 1,
      "content": "[PAD]",
      "single_word": false,
      "lstrip": false,
      "rstrip": false,
      "normalized": false,
      "special": true
    },
    {
      "id": 2,
      "content": "[CLS]",
      "single_word": false,
      "lstrip": false,
      "rstrip": false,
      "normalized": false,
      "special": true
    },
    {
      "id": 3,
      "content": "[SEP]",
      "single_word": false,
      "lstrip": false,
      "rstrip": false,
      "normalized": false,
      "special": true
    },
    {
      "id": 4,
      "content": "[MASK]",
      "single_word": false,
      "lstrip": false,
      "rstrip": false,
      "normalized": false,
      "special": true
    }
  ],
  "normalizer": {
    "type": "BertNormalizer",
    "clean_text": true,
    "handle_chinese_chars": true,
    "strip_accents": null,
    "lowercase": true
  },
  "pre_tokenizer": {
    "type": "BertPreTokenizer"
  },
  "post_processor": null,
  "decoder": null,
  "model": {
    "type": "WordPiece",
    "unk_token": "[UNK]",
    "continuing_subword_prefix": "##",
    "max_input_chars_per_word": 100,
    "vocab": {
      "[UNK]": 0,
      "[PAD]": 1,
      "[CLS]": 2,
      "[SEP]": 3,
      "[MASK]": 4,
      "!": 5,
      "\"": 6,
      "#": 7,
      "$": 8,
      "%": 9,
      "&": 10,
      "'": 11,
      "(": 12,
      ")": 13,
      "*": 14,
      "+": 15,
      ",": 16,
      "-": 17,
      ".": 18,
      "/": 19,
      "0": 20,
      "1": 21,
      "2": 22,
      "3": 23,
      "4": 24,
      "5": 25,
      "6": 26,
      "7": 27,
      "8": 28,
      "9": 29,
      ":": 30,
      ";": 31,
      "<": 32,
      "=": 33,
      ">": 34,
      "?": 35,
      "@": 36,
      "[": 37,
      "\\": 38,
      "]": 39,
      "^": 40,
      "_": 41,
      "`": 42,
      "a": 43,
      "b": 44,
      "c": 45,
      "d": 46,
      "e": 47,
      "f": 48,
      "g": 49,
      "h": 50,
      "i": 51,
      "j": 52,
      "k": 53,
      "l": 54,
      "m": 55,
      "n": 56,
      "o": 57,
      "p": 58,
      "q": 59,
      "r": 60,
      "s": 61,
      "t": 62,
      "u": 63,
      "v": 64,
      "w": 65,
      "x": 66,
      "y": 67,
      "z": 68,
      "{": 69,
      "|": 70,
      "}": 71,
      "~": 72,
      "¤": 73,
      "¥": 74,
      "«": 75,
      "°": 76,
      "µ": 77,
      "¹": 78,
      "º": 79,
      "»": 80,
      "×": 81,
      "æ": 82,
      "ы": 83,
      "ҵ": 84,
      "һ": 85,
      "ӽ": 86,
      "ߢ": 87,
      "ᄀ": 88,
      "ᄂ": 89,
      "ᄅ": 90,
      "ᄆ": 91,
      "ᄈ": 92,
      "ᄉ": 93,
      "ᄊ": 94,
      "ᄋ": 95,
      "ᄎ": 96,
      "ᄑ": 97,
      "ᅣ": 98,
      "ᅤ": 99,
      "ᅧ": 100,
      "ᅩ": 101,
      "ᅪ": 102,
      "ᅬ": 103,
      "ᅭ": 104,
      "ᅯ": 105,
      "ᅵ": 106,
      "ᆪ": 107,
      "ᆬ": 108,
      "ᆭ": 109,
      "ᆰ": 110,
      "ᆵ": 111,
      "ᆶ": 112,
      "ᆹ": 113,
      "ᆺ": 114,
      "ᆾ": 115,
      "ᇀ": 116,
      "ᇁ": 117,
      "ᇂ": 118,
      "ᏽ": 119,
      "ᝨ": 120,
      "ᠢ": 121,
      "ᱏ": 122,
      "ᵄ": 123,
      "—": 124,
      "“": 125,
      "”": 126,
      "…": 127,
      "℃": 128,
      "→": 129,
      "↓": 130,
      "、": 131,
      "。": 132,
      "《": 133,
      "》": 134,
      "【": 135,
      "】": 136,
      "㘙": 137,
      "㹠": 138,
      "㿸": 139,
      "䏦": 140,
      "䗖": 141,
      "䙄": 142,
      "䨛": 143,
      "䫎": 144,
      "䮕": 145,
      "䱒": 146,
      "一": 147,
      "丁": 148,
      "七": 149,
      "万": 150,
      "三": 151,
      "上": 152,
      "下": 153,
      "不": 154,
      "与": 155,
      "专": 156,
      "世": 157,
      "业": 158,
      "东": 159,
      "丝": 160,
      "丢": 161,
      "两": 162,
      "严": 163,
      "个": 164,
      "中": 165,
      "丰": 166,
      "串": 167,
      "丹": 168,
      "为": 169,
      "主": 170,
      "丽": 171,
      "么": 172,
      "义": 173,
      "之": 174,
      "乐": 175,
      "九": 176,
      "也": 177,
      "乡": 178,
      "书": 179,
      "买": 180,
      "乱": 181,
      "了": 182,
      "予": 183,
      "争": 184,
      "亊": 185,
      "事": 186,
      "二": 187,
      "于": 188,
      "亏": 189,
      "云": 190,
      "互": 191,
      "五": 192,
      "亚": 193,
      "些": 194,
      "亡": 195,
      "交": 196,
      "亦": 197,
      "产": 198,
      "享": 199,
      "京": 200,
      "亮": 201,
      "亲": 202,
      "人": 203,
      "亿": 204,
      "什": 205,
      "仅": 206,
      "仇": 207,
      "今": 208,
      "介": 209,
      "从": 210,
      "仕": 211,
      "他": 212,
      "付": 213,
      "代": 214,
      "以": 215,
      "仪": 216,
      "们": 217,
      "件": 218,
      "价": 219,
      "任": 220,
      "份": 221,
      "企": 222,
      "伏": 223,
      "休": 224,
      "众": 225,
      "优": 226,
      "伙": 227,
      "会": 228,
      "传": 229,
      "伤": 230,
      "伦": 231,
      "伬": 232,
      "伯": 233,
      "伴": 234,
      "但": 235,
      "位": 236,
      "低": 237,
      "住": 238,
      "体": 239,
      "何": 240,
      "佖": 241,
      "余": 242,
      "佛": 243,
      "作": 244,
      "你": 245,
      "佳": 246,
      "佽": 247,
      "使": 248,
      "供": 249,
      "依": 250,
      "侠": 251,
      "侧": 252,
      "便": 253,
      "俄": 254,
      "俊": 255,
      "保": 256,
      "信": 257,
      "修": 258,
      "俱": 259,
      "倒": 260,
      "候": 261,
      "借": 262,
      "值": 263,
      "倾": 264,
      "做": 265,
      "停": 266,
      "健": 267,
      "偷": 268,
      "傅": 269,
      "傍": 270,
      "储": 271,
      "像": 272,
      "儿": 273,
      "允": 274,
      "元": 275,
      "充": 276,
      "先": 277,
      "光": 278,
      "免": 279,
      "入": 280,
      "全": 281,
      "八": 282,
      "公": 283,
      "六": 284,
      "共": 285,
      "关": 286,
      "兵": 287,
      "其": 288,
      "具": 289,
      "典": 290,
      "兹": 291,
      "养": 292,
      "兽": 293,
      "内": 294,
      "册": 295,
      "再": 296,
      "写": 297,
      "农": 298,
      "冠": 299,
      "冤": 300,
      "冬": 301,
      "冲": 302,
      "决": 303,
      "冷": 304,
      "净": 305,
      "准": 306,
      "凉": 307,
      "凌": 308,
      "减": 309,
      "几": 310,
      "凡": 311,
      "凯": 312,
      "凶": 313,
      "出": 314,
      "击": 315,
      "分": 316,
      "切": 317,
      "刑": 318,
      "划": 319,
      "列": 320,
      "刘": 321,
      "则": 322,
      "刚": 323,
      "创": 324,
      "初": 325,
      "删": 326,
      "判": 327,
      "利": 328,
      "别": 329,
      "到": 330,
      "制": 331,
      "刷": 332,
      "刺": 333,
      "刻": 334,
      "前": 335,
      "剧": 336,
      "剩": 337,
      "力": 338,
      "办": 339,
      "功": 340,
      "加": 341,
      "务": 342,
      "动": 343,
      "助": 344,
      "劫": 345,
      "势": 346,
      "勇": 347,
      "勿": 348,
      "包": 349,
      "化": 350,
      "北": 351,
      "匙": 352,
      "匪": 353,
      "匹": 354,
      "区": 355,
      "医": 356,
      "匿": 357,
      "十": 358,
      "千": 359,
      "升": 360,
      "午": 361,
      "半": 362,
      "华": 363,
      "协": 364,
      "单": 365,
      "南": 366,
      "博": 367,
      "占": 368,
      "卡": 369,
      "卫": 370,
      "印": 371,
      "即": 372,
      "却": 373,
      "卷": 374,
      "卸": 375,
      "厂": 376,
      "厅": 377,
      "历": 378,
      "厉": 379,
      "压": 380,
      "厕": 381,
      "原": 382,
      "厦": 383,
      "去": 384,
      "又": 385,
      "及": 386,
      "友": 387,
      "双": 388,
      "反": 389,
      "发": 390,
      "取": 391,
      "受": 392,
      "变": 393,
      "口": 394,
      "古": 395,
      "另": 396,
      "只": 397,
      "叫": 398,
      "可": 399,
      "台": 400,
      "史": 401,
      "右": 402,
      "号": 403,
      "司": 404,
      "吃": 405,
      "各": 406,
      "合": 407,
      "吉": 408,
      "同": 409,
      "名": 410,
      "后": 411,
      "向": 412,
      "吗": 413,
      "君": 414,
      "否": 415,
      "吧": 416,
      "听": 417,
      "启": 418,
      "吴": 419,
      "吼": 420,
      "呆": 421,
      "告": 422,
      "呒": 423,
      "员": 424,
      "周": 425,
      "呲": 426,
      "味": 427,
      "呼": 428,
      "命": 429,
      "和": 430,
      "咽": 431,
      "哀": 432,
      "品": 433,
      "哈": 434,
      "响": 435,
      "哒": 436,
      "哔": 437,
      "員": 438,
      "哥": 439,
      "哦": 440,
      "哩": 441,
      "哪": 442,
      "哭": 443,
      "哲": 444,
      "哼": 445,
      "哽": 446,
      "唐": 447,
      "售": 448,
      "唯": 449,
      "唱": 450,
      "商": 451,
      "啦": 452,
      "善": 453,
      "喆": 454,
      "喊": 455,
      "喘": 456,
      "喜": 457,
      "喷": 458,
      "嘉": 459,
      "嘞": 460,
      "嘴": 461,
      "器": 462,
      "噩": 463,
      "嚣": 464,
      "四": 465,
      "回": 466,
      "因": 467,
      "团": 468,
      "园": 469,
      "围": 470,
      "国": 471,
      "图": 472,
      "圈": 473,
      "圞": 474,
      "土": 475,
      "圣": 476,
      "在": 477,
      "地": 478,
      "圳": 479,
      "场": 480,
      "址": 481,
      "均": 482,
      "坊": 483,
      "坎": 484,
      "坏": 485,
      "块": 486,
      "坚": 487,
      "坨": 488,
      "坷": 489,
      "型": 490,
      "城": 491,
      "基": 492,
      "堆": 493,
      "塔": 494,
      "塞": 495,
      "填": 496,
      "境": 497,
      "墅": 498,
      "墙": 499,
      "增": 500,
      "墨": 501,
      "士": 502,
      "声": 503,
      "处": 504,
      "备": 505,
      "复": 506,
      "夏": 507,
      "外": 508,
      "夙": 509,
      "多": 510,
      "夜": 511,
      "够": 512,
      "大": 513,
      "天": 514,
      "太": 515,
      "央": 516,
      "失": 517,
      "头": 518,
      "夸": 519,
      "夹": 520,
      "夺": 521,
      "奇": 522,
      "奏": 523,
      "奕": 524,
      "奥": 525,
      "女": 526,
      "她": 527,
      "好": 528,
      "如": 529,
      "妃": 530,
      "妇": 531,
      "妍": 532,
      "妖": 533,
      "妹": 534,
      "妾": 535,
      "始": 536,
      "姑": 537,
      "委": 538,
      "威": 539,
      "娘": 540,
      "娱": 541,
      "娶": 542,
      "媒": 543,
      "媛": 544,
      "媥": 545,
      "媳": 546,
      "嫁": 547,
      "嫣": 548,
      "子": 549,
      "字": 550,
      "存": 551,
      "孙": 552,
      "孟": 553,
      "孡": 554,
      "学": 555,
      "孩": 556,
      "宁": 557,
      "它": 558,
      "宇": 559,
      "守": 560,
      "安": 561,
      "宋": 562,
      "完": 563,
      "官": 564,
      "定": 565,
      "宜": 566,
      "宝": 567,
      "实": 568,
      "宠": 569,
      "审": 570,
      "客": 571,
      "宣": 572,
      "室": 573,
      "宫": 574,
      "害": 575,
      "家": 576,
      "容": 577,
      "宽": 578,
      "宾": 579,
      "宿": 580,
      "密": 581,
      "富": 582,
      "寓": 583,
      "对": 584,
      "寺": 585,
      "寻": 586,
      "导": 587,
      "封": 588,
      "射": 589,
      "将": 590,
      "導": 591,
      "小": 592,
      "少": 593,
      "尔": 594,
      "尚": 595,
      "尝": 596,
      "尬": 597,
      "就": 598,
      "尴": 599,
      "尼": 600,
      "尽": 601,
      "尾": 602,
      "局": 603,
      "层": 604,
      "屈": 605,
      "屋": 606,
      "屏": 607,
      "展": 608,
      "山": 609,
      "岗": 610,
      "岛": 611,
      "岳": 612,
      "峰": 613,
      "巅": 614,
      "州": 615,
      "工": 616,
      "左": 617,
      "巧": 618,
      "巨": 619,
      "己": 620,
      "已": 621,
      "巴": 622,
      "巾": 623,
      "市": 624,
      "布": 625,
      "帅": 626,
      "师": 627,
      "希": 628,
      "帝": 629,
      "带": 630,
      "帧": 631,
      "常": 632,
      "幕": 633,
      "平": 634,
      "年": 635,
      "并": 636,
      "幸": 637,
      "幻": 638,
      "广": 639,
      "庄": 640,
      "序": 641,
      "库": 642,
      "应": 643,
      "店": 644,
      "府": 645,
      "庞": 646,
      "度": 647,
      "座": 648,
      "庭": 649,
      "庶": 650,
      "康": 651,
      "延": 652,
      "廷": 653,
      "建": 654,
      "廿": 655,
      "开": 656,
      "异": 657,
      "弃": 658,
      "式": 659,
      "引": 660,
      "张": 661,
      "弱": 662,
      "弹": 663,
      "强": 664,
      "当": 665,
      "录": 666,
      "彤": 667,
      "彩": 668,
      "彭": 669,
      "影": 670,
      "往": 671,
      "径": 672,
      "待": 673,
      "很": 674,
      "律": 675,
      "徐": 676,
      "得": 677,
      "御": 678,
      "微": 679,
      "徳": 680,
      "德": 681,
      "心": 682,
      "必": 683,
      "忆": 684,
      "忍": 685,
      "志": 686,
      "忘": 687,
      "忙": 688,
      "忝": 689,
      "忧": 690,
      "快": 691,
      "念": 692,
      "怀": 693,
      "态": 694,
      "怎": 695,
      "怒": 696,
      "怜": 697,
      "怡": 698,
      "急": 699,
      "性": 700,
      "总": 701,
      "怼": 702,
      "恋": 703,
      "恢": 704,
      "恣": 705,
      "恨": 706,
      "息": 707,
      "悉": 708,
      "悚": 709,
      "悠": 710,
      "您": 711,
      "悬": 712,
      "情": 713,
      "惊": 714,
      "惠": 715,
      "惫": 716,
      "想": 717,
      "愉": 718,
      "意": 719,
      "感": 720,
      "愿": 721,
      "慢": 722,
      "慧": 723,
      "憨": 724,
      "懒": 725,
      "懦": 726,
      "戏": 727,
      "成": 728,
      "我": 729,
      "戒": 730,
      "或": 731,
      "战": 732,
      "截": 733,
      "戳": 734,
      "户": 735,
      "房": 736,
      "所": 737,
      "手": 738,
      "才": 739,
      "打": 740,
      "扣": 741,
      "扥": 742,
      "执": 743,
      "扫": 744,
      "扭": 745,
      "扰": 746,
      "扶": 747,
      "扽": 748,
      "找": 749,
      "技": 750,
      "把": 751,
      "抓": 752,
      "投": 753,
      "抗": 754,
      "折": 755,
      "抢": 756,
      "护": 757,
      "报": 758,
      "抵": 759,
      "押": 760,
      "拉": 761,
      "拍": 762,
      "拓": 763,
      "拔": 764,
      "招": 765,
      "拜": 766,
      "拦": 767,
      "拨": 768,
      "择": 769,
      "拭": 770,
      "拵": 771,
      "拿": 772,
      "持": 773,
      "指": 774,
      "按": 775,
      "挚": 776,
      "振": 777,
      "捉": 778,
      "捕": 779,
      "损": 780,
      "换": 781,
      "据": 782,
      "捷": 783,
      "掉": 784,
      "掌": 785,
      "排": 786,
      "接": 787,
      "控": 788,
      "推": 789,
      "掩": 790,
      "措": 791,
      "描": 792,
      "提": 793,
      "插": 794,
      "揣": 795,
      "搜": 796,
      "搞": 797,
      "搭": 798,
      "摇": 799,
      "摩": 800,
      "撇": 801,
      "撕": 802,
      "撩": 803,
      "播": 804,
      "擅": 805,
      "操": 806,
      "擒": 807,
      "支": 808,
      "收": 809,
      "改": 810,
      "攻": 811,
      "放": 812,
      "故": 813,
      "效": 814,
      "敌": 815,
      "救": 816,
      "教": 817,
      "敢": 818,
      "敬": 819,
      "数": 820,
      "敲": 821,
      "整": 822,
      "文": 823,
      "斗": 824,
      "料": 825,
      "斩": 826,
      "断": 827,
      "斯": 828,
      "新": 829,
      "方": 830,
      "施": 831,
      "旅": 832,
      "旋": 833,
      "族": 834,
      "旗": 835,
      "无": 836,
      "日": 837,
      "旧": 838,
      "早": 839,
      "时": 840,
      "旺": 841,
      "昌": 842,
      "明": 843,
      "易": 844,
      "星": 845,
      "春": 846,
      "是": 847,
      "显": 848,
      "晋": 849,
      "晓": 850,
      "晖": 851,
      "晚": 852,
      "晟": 853,
      "晨": 854,
      "普": 855,
      "景": 856,
      "晰": 857,
      "晴": 858,
      "智": 859,
      "暂": 860,
      "暖": 861,
      "暗": 862,
      "暴": 863,
      "曲": 864,
      "更": 865,
      "曹": 866,
      "曾": 867,
      "替": 868,
      "最": 869,
      "會": 870,
      "月": 871,
      "有": 872,
      "服": 873,
      "望": 874,
      "朝": 875,
      "期": 876,
      "朧": 877,
      "木": 878,
      "未": 879,
      "本": 880,
      "术": 881,
      "朱": 882,
      "朵": 883,
      "朹": 884,
      "机": 885,
      "杀": 886,
      "权": 887,
      "李": 888,
      "材": 889,
      "村": 890,
      "束": 891,
      "条": 892,
      "来": 893,
      "杨": 894,
      "杰": 895,
      "松": 896,
      "构": 897,
      "析": 898,
      "林": 899,
      "果": 900,
      "架": 901,
      "染": 902,
      "柚": 903,
      "查": 904,
      "标": 905,
      "树": 906,
      "样": 907,
      "核": 908,
      "根": 909,
      "格": 910,
      "桃": 911,
      "框": 912,
      "档": 913,
      "桩": 914,
      "梁": 915,
      "梦": 916,
      "检": 917,
      "楼": 918,
      "概": 919,
      "樂": 920,
      "模": 921,
      "横": 922,
      "橙": 923,
      "次": 924,
      "欢": 925,
      "欣": 926,
      "欧": 927,
      "欺": 928,
      "款": 929,
      "歌": 930,
      "止": 931,
      "正": 932,
      "此": 933,
      "步": 934,
      "武": 935,
      "死": 936,
      "母": 937,
      "每": 938,
      "毒": 939,
      "比": 940,
      "毕": 941,
      "毛": 942,
      "氏": 943,
      "民": 944,
      "气": 945,
      "水": 946,
      "永": 947,
      "汁": 948,
      "求": 949,
      "汇": 950,
      "汉": 951,
      "汗": 952,
      "江": 953,
      "池": 954,
      "污": 955,
      "汽": 956,
      "沈": 957,
      "沉": 958,
      "沐": 959,
      "沟": 960,
      "没": 961,
      "河": 962,
      "油": 963,
      "治": 964,
      "泉": 965,
      "泓": 966,
      "法": 967,
      "泡": 968,
      "波": 969,
      "注": 970,
      "泪": 971,
      "泰": 972,
      "泻": 973,
      "泼": 974,
      "泽": 975,
      "洪": 976,
      "洱": 977,
      "活": 978,
      "洼": 979,
      "流": 980,
      "浅": 981,
      "测": 982,
      "浏": 983,
      "浚": 984,
      "浦": 985,
      "浮": 986,
      "浴": 987,
      "海": 988,
      "涂": 989,
      "消": 990,
      "润": 991,
      "液": 992,
      "淀": 993,
      "淘": 994,
      "淮": 995,
      "深": 996,
      "添": 997,
      "渄": 998,
      "清": 999,
      "渍": 1000,
      "渔": 1001,
      "温": 1002,
      "游": 1003,
      "湖": 1004,
      "湘": 1005,
      "源": 1006,
      "滚": 1007,
      "满": 1008,
      "滤": 1009,
      "滨": 1010,
      "滴": 1011,
      "演": 1012,
      "漫": 1013,
      "潮": 1014,
      "澳": 1015,
      "激": 1016,
      "瀚": 1017,
      "火": 1018,
      "灰": 1019,
      "灵": 1020,
      "炮": 1021,
      "点": 1022,
      "烟": 1023,
      "烤": 1024,
      "烧": 1025,
      "热": 1026,
      "烹": 1027,
      "烽": 1028,
      "然": 1029,
      "煌": 1030,
      "照": 1031,
      "熄": 1032,
      "熾": 1033,
      "燃": 1034,
      "燕": 1035,
      "爱": 1036,
      "父": 1037,
      "片": 1038,
      "版": 1039,
      "牌": 1040,
      "牙": 1041,
      "牛": 1042,
      "物": 1043,
      "特": 1044,
      "状": 1045,
      "狂": 1046,
      "狗": 1047,
      "独": 1048,
      "狼": 1049,
      "猎": 1050,
      "猫": 1051,
      "率": 1052,
      "王": 1053,
      "玩": 1054,
      "环": 1055,
      "现": 1056,
      "玻": 1057,
      "珠": 1058,
      "球": 1059,
      "理": 1060,
      "瑞": 1061,
      "瓜": 1062,
      "瓦": 1063,
      "生": 1064,
      "用": 1065,
      "田": 1066,
      "由": 1067,
      "甲": 1068,
      "电": 1069,
      "男": 1070,
      "画": 1071,
      "畅": 1072,
      "界": 1073,
      "留": 1074,
      "略": 1075,
      "疆": 1076,
      "疑": 1077,
      "痒": 1078,
      "痛": 1079,
      "登": 1080,
      "白": 1081,
      "百": 1082,
      "的": 1083,
      "皇": 1084,
      "皲": 1085,
      "监": 1086,
      "盒": 1087,
      "盘": 1088,
      "盛": 1089,
      "盟": 1090,
      "目": 1091,
      "直": 1092,
      "相": 1093,
      "省": 1094,
      "看": 1095,
      "真": 1096,
      "眥": 1097,
      "眼": 1098,
      "眽": 1099,
      "着": 1100,
      "睡": 1101,
      "瞬": 1102,
      "知": 1103,
      "短": 1104,
      "石": 1105,
      "码": 1106,
      "破": 1107,
      "确": 1108,
      "碌": 1109,
      "磨": 1110,
      "示": 1111,
      "社": 1112,
      "祀": 1113,
      "祁": 1114,
      "神": 1115,
      "票": 1116,
      "祭": 1117,
      "禌": 1118,
      "福": 1119,
      "禹": 1120,
      "离": 1121,
      "秀": 1122,
      "私": 1123,
      "秋": 1124,
      "种": 1125,
      "科": 1126,
      "秒": 1127,
      "租": 1128,
      "秦": 1129,
      "积": 1130,
      "移": 1131,
      "程": 1132,
      "稍": 1133,
      "稸": 1134,
      "稻": 1135,
      "穴": 1136,
      "穷": 1137,
      "空": 1138,
      "突": 1139,
      "窄": 1140,
      "窑": 1141,
      "窝": 1142,
      "立": 1143,
      "站": 1144,
      "竞": 1145,
      "章": 1146,
      "童": 1147,
      "端": 1148,
      "笑": 1149,
      "符": 1150,
      "第": 1151,
      "等": 1152,
      "筒": 1153,
      "简": 1154,
      "算": 1155,
      "管": 1156,
      "箱": 1157,
      "簪": 1158,
      "米": 1159,
      "类": 1160,
      "粉": 1161,
      "粥": 1162,
      "粮": 1163,
      "精": 1164,
      "粿": 1165,
      "系": 1166,
      "紟": 1167,
      "素": 1168,
      "索": 1169,
      "紧": 1170,
      "纈": 1171,
      "纐": 1172,
      "纠": 1173,
      "红": 1174,
      "约": 1175,
      "级": 1176,
      "纪": 1177,
      "纳": 1178,
      "纵": 1179,
      "纷": 1180,
      "线": 1181,
      "组": 1182,
      "细": 1183,
      "终": 1184,
      "绎": 1185,
      "经": 1186,
      "绑": 1187,
      "结": 1188,
      "给": 1189,
      "络": 1190,
      "统": 1191,
      "绣": 1192,
      "继": 1193,
      "绩": 1194,
      "续": 1195,
      "维": 1196,
      "绿": 1197,
      "缓": 1198,
      "编": 1199,
      "缘": 1200,
      "缺": 1201,
      "网": 1202,
      "罔": 1203,
      "罗": 1204,
      "置": 1205,
      "美": 1206,
      "羞": 1207,
      "群": 1208,
      "翁": 1209,
      "翠": 1210,
      "翡": 1211,
      "翻": 1212,
      "耀": 1213,
      "老": 1214,
      "考": 1215,
      "者": 1216,
      "而": 1217,
      "耗": 1218,
      "耳": 1219,
      "聊": 1220,
      "职": 1221,
      "联": 1222,
      "聚": 1223,
      "聤": 1224,
      "肤": 1225,
      "育": 1226,
      "背": 1227,
      "胜": 1228,
      "胡": 1229,
      "胸": 1230,
      "能": 1231,
      "脱": 1232,
      "腾": 1233,
      "膛": 1234,
      "臣": 1235,
      "自": 1236,
      "致": 1237,
      "舞": 1238,
      "航": 1239,
      "良": 1240,
      "艰": 1241,
      "色": 1242,
      "艺": 1243,
      "艾": 1244,
      "节": 1245,
      "芒": 1246,
      "芯": 1247,
      "花": 1248,
      "芷": 1249,
      "苏": 1250,
      "苑": 1251,
      "苦": 1252,
      "茂": 1253,
      "范": 1254,
      "茜": 1255,
      "茨": 1256,
      "茹": 1257,
      "荐": 1258,
      "荒": 1259,
      "荣": 1260,
      "莞": 1261,
      "获": 1262,
      "菜": 1263,
      "萄": 1264,
      "萌": 1265,
      "营": 1266,
      "萧": 1267,
      "落": 1268,
      "葛": 1269,
      "葡": 1270,
      "葩": 1271,
      "蒋": 1272,
      "蒙": 1273,
      "蒸": 1274,
      "蓝": 1275,
      "蔚": 1276,
      "蔽": 1277,
      "薦": 1278,
      "藏": 1279,
      "虎": 1280,
      "蛇": 1281,
      "蛋": 1282,
      "蛾": 1283,
      "蜗": 1284,
      "融": 1285,
      "血": 1286,
      "行": 1287,
      "街": 1288,
      "衞": 1289,
      "表": 1290,
      "衰": 1291,
      "袁": 1292,
      "被": 1293,
      "袭": 1294,
      "裂": 1295,
      "装": 1296,
      "裙": 1297,
      "西": 1298,
      "要": 1299,
      "见": 1300,
      "观": 1301,
      "规": 1302,
      "视": 1303,
      "览": 1304,
      "解": 1305,
      "言": 1306,
      "警": 1307,
      "计": 1308,
      "订": 1309,
      "认": 1310,
      "让": 1311,
      "讯": 1312,
      "记": 1313,
      "讶": 1314,
      "许": 1315,
      "设": 1316,
      "证": 1317,
      "评": 1318,
      "识": 1319,
      "诉": 1320,
      "词": 1321,
      "试": 1322,
      "诗": 1323,
      "话": 1324,
      "诡": 1325,
      "询": 1326,
      "该": 1327,
      "详": 1328,
      "语": 1329,
      "误": 1330,
      "说": 1331,
      "请": 1332,
      "读": 1333,
      "谁": 1334,
      "调": 1335,
      "谋": 1336,
      "谢": 1337,
      "谭": 1338,
      "谱": 1339,
      "谷": 1340,
      "豆": 1341,
      "象": 1342,
      "豪": 1343,
      "豸": 1344,
      "贝": 1345,
      "负": 1346,
      "贤": 1347,
      "败": 1348,
      "账": 1349,
      "质": 1350,
      "贪": 1351,
      "购": 1352,
      "贴": 1353,
      "贷": 1354,
      "费": 1355,
      "贼": 1356,
      "赁": 1357,
      "赋": 1358,
      "赏": 1359,
      "赛": 1360,
      "赢": 1361,
      "走": 1362,
      "赵": 1363,
      "赶": 1364,
      "起": 1365,
      "超": 1366,
      "越": 1367,
      "足": 1368,
      "跁": 1369,
      "跋": 1370,
      "跑": 1371,
      "跟": 1372,
      "路": 1373,
      "跳": 1374,
      "蹈": 1375,
      "蹬": 1376,
      "身": 1377,
      "车": 1378,
      "轩": 1379,
      "转": 1380,
      "软": 1381,
      "轻": 1382,
      "载": 1383,
      "较": 1384,
      "辅": 1385,
      "辆": 1386,
      "辉": 1387,
      "辑": 1388,
      "输": 1389,
      "辖": 1390,
      "辣": 1391,
      "辨": 1392,
      "边": 1393,
      "达": 1394,
      "迅": 1395,
      "过": 1396,
      "迎": 1397,
      "运": 1398,
      "返": 1399,
      "还": 1400,
      "这": 1401,
      "进": 1402,
      "远": 1403,
      "违": 1404,
      "连": 1405,
      "迡": 1406,
      "迪": 1407,
      "迫": 1408,
      "述": 1409,
      "迹": 1410,
      "追": 1411,
      "迿": 1412,
      "退": 1413,
      "送": 1414,
      "逆": 1415,
      "选": 1416,
      "逐": 1417,
      "递": 1418,
      "途": 1419,
      "通": 1420,
      "速": 1421,
      "逻": 1422,
      "逼": 1423,
      "遇": 1424,
      "道": 1425,
      "遗": 1426,
      "那": 1427,
      "邮": 1428,
      "部": 1429,
      "郭": 1430,
      "都": 1431,
      "鄙": 1432,
      "配": 1433,
      "酒": 1434,
      "酷": 1435,
      "醉": 1436,
      "采": 1437,
      "里": 1438,
      "重": 1439,
      "量": 1440,
      "金": 1441,
      "鑫": 1442,
      "针": 1443,
      "钟": 1444,
      "钥": 1445,
      "钮": 1446,
      "钱": 1447,
      "钻": 1448,
      "铁": 1449,
      "铃": 1450,
      "银": 1451,
      "销": 1452,
      "锂": 1453,
      "锅": 1454,
      "错": 1455,
      "锡": 1456,
      "锦": 1457,
      "键": 1458,
      "镇": 1459,
      "镜": 1460,
      "长": 1461,
      "閾": 1462,
      "门": 1463,
      "闪": 1464,
      "闭": 1465,
      "问": 1466,
      "闲": 1467,
      "间": 1468,
      "闵": 1469,
      "闹": 1470,
      "闻": 1471,
      "阀": 1472,
      "阅": 1473,
      "阜": 1474,
      "队": 1475,
      "防": 1476,
      "阳": 1477,
      "阴": 1478,
      "阵": 1479,
      "阿": 1480,
      "际": 1481,
      "陈": 1482,
      "陋": 1483,
      "限": 1484,
      "陕": 1485,
      "院": 1486,
      "除": 1487,
      "险": 1488,
      "陪": 1489,
      "陲": 1490,
      "陷": 1491,
      "随": 1492,
      "隐": 1493,
      "难": 1494,
      "雁": 1495,
      "雄": 1496,
      "雅": 1497,
      "集": 1498,
      "雨": 1499,
      "雪": 1500,
      "零": 1501,
      "雾": 1502,
      "需": 1503,
      "震": 1504,
      "霖": 1505,
      "露": 1506,
      "霸": 1507,
      "霾": 1508,
      "青": 1509,
      "静": 1510,
      "非": 1511,
      "面": 1512,
      "鞋": 1513,
      "音": 1514,
      "页": 1515,
      "顶": 1516,
      "项": 1517,
      "须": 1518,
      "顾": 1519,
      "顿": 1520,
      "预": 1521,
      "领": 1522,
      "颐": 1523,
      "频": 1524,
      "题": 1525,
      "颜": 1526,
      "额": 1527,
      "风": 1528,
      "飚": 1529,
      "飞": 1530,
      "食": 1531,
      "饪": 1532,
      "饰": 1533,
      "馆": 1534,
      "馈": 1535,
      "馏": 1536,
      "首": 1537,
      "香": 1538,
      "马": 1539,
      "驶": 1540,
      "驾": 1541,
      "骄": 1542,
      "骤": 1543,
      "骨": 1544,
      "髎": 1545,
      "高": 1546,
      "鬼": 1547,
      "魅": 1548,
      "魏": 1549,
      "魔": 1550,
      "魢": 1551,
      "鲜": 1552,
      "鸨": 1553,
      "鸿": 1554,
      "鹅": 1555,
      "鹿": 1556,
      "麦": 1557,
      "黄": 1558,
      "黑": 1559,
      "鼓": 1560,
      "龙": 1561,
      "龚": 1562,
      "ﯨ": 1563,
      "！": 1564,
      "（": 1565,
      "）": 1566,
      "，": 1567,
      "／": 1568,
      "：": 1569,
      "；": 1570,
      "？": 1571,
      "＼": 1572,
      "ｑ": 1573,
      "～": 1574,
      "💕": 1575,
      "##4": 1576,
      "##8": 1577,
      "##2": 1578,
      "##0": 1579,
      "##9": 1580,
      "##6": 1581,
      "##7": 1582,
      "##c": 1583,
      "##e": 1584,
      "##b": 1585,
      "##1": 1586,
      "##5": 1587,
      "##3": 1588,
      "##s": 1589,
      "##f": 1590,
      "##a": 1591,
      "##p": 1592,
      "##r": 1593,
      "##o": 1594,
      "##x": 1595,
      "##i": 1596,
      "##m": 1597,
      "##t": 1598,
      "##y": 1599,
      "##n": 1600,
      "##h": 1601,
      "##l": 1602,
      "##v": 1603,
      "##d": 1604,
      "##w": 1605,
      "##u": 1606,
      "##g": 1607,
      "##z": 1608,
      "##q": 1609,
      "##j": 1610,
      "##k": 1611,
      "##¤": 1612,
      "##µ": 1613,
      "##ᅯ": 1614,
      "##ᇁ": 1615,
      "##ᅣ": 1616,
      "##ᆹ": 1617,
      "##×": 1618,
      "##¹": 1619,
      "##ᄀ": 1620,
      "##ᅬ": 1621,
      "##ᆾ": 1622,
      "##ᅪ": 1623,
      "##ᆵ": 1624,
      "##ӽ": 1625,
      "##ᄉ": 1626,
      "##ᅭ": 1627,
      "##ᆶ": 1628,
      "##ᅩ": 1629,
      "##ᆪ": 1630,
      "##ᅧ": 1631,
      "##ᆭ": 1632,
      "##ﯨ": 1633,
      "##¥": 1634,
      "##°": 1635,
      "##ᄅ": 1636,
      "##ᅵ": 1637,
      "##ᇂ": 1638,
      "##ߢ": 1639,
      "##ᆰ": 1640,
      "##ᅤ": 1641,
      "##ᇀ": 1642,
      "##ᆬ": 1643,
      "##ᄎ": 1644,
      "##ᆺ": 1645,
      "##º": 1646,
      "##er": 1647,
      "12": 1648,
      "##nt": 1649,
      "##at": 1650,
      "17": 1651,
      "##on": 1652,
      "##ce": 1653,
      "##re": 1654,
      "##ro": 1655,
      "##an": 1656,
      "##et": 1657,
      "11": 1658,
      "##al": 1659,
      "##in": 1660,
      "##st": 1661,
      "##id": 1662,
      "##ed": 1663,
      "19": 1664,
      "##ag": 1665,
      "##vi": 1666,
      "co": 1667,
      "##en": 1668,
      "##ti": 1669,
      "25": 1670,
      "##man": 1671,
      "##ne": 1672,
      "##00": 1673,
      "##or": 1674,
      "##manag": 1675,
      "##le": 1676,
      "##manager": 1677,
      "##ss": 1678,
      "##ar": 1679,
      "32": 1680,
      "18": 1681,
      "##se": 1682,
      "re": 1683,
      "33": 1684,
      "30": 1685,
      "##ent": 1686,
      "07": 1687,
      "##nd": 1688,
      "##vice": 1689,
      "##ic": 1690,
      "##de": 1691,
      "hw": 1692,
      "##ser": 1693,
      "##oc": 1694,
      "##60": 1695,
      "##ue": 1696,
      "##62": 1697,
      "##ing": 1698,
      "##ad": 1699,
      "##pl": 1700,
      "##81": 1701,
      "23": 1702,
      "qc": 1703,
      "com": 1704,
      "##it": 1705,
      "28": 1706,
      "tr": 1707,
      "fal": 1708,
      "false": 1709,
      "22": 1710,
      "##cti": 1711,
      "core": 1712,
      "##nej": 1713,
      "qcnej": 1714,
      "##ll": 1715,
      "3262": 1716,
      "su": 1717,
      "10": 1718,
      "20": 1719,
      "##ut": 1720,
      "##co": 1721,
      "st": 1722,
      "##ch": 1723,
      "31": 1724,
      "21": 1725,
      "##am": 1726,
      "##52": 1727,
      "##ob": 1728,
      "##ate": 1729,
      "##ow": 1730,
      "06": 1731,
      "##vent": 1732,
      "3381": 1733,
      "and": 1734,
      "##iv": 1735,
      "true": 1736,
      "08": 1737,
      "##ile": 1738,
      "##ock": 1739,
      "##roid": 1740,
      "android": 1741,
      "##pe": 1742,
      "1760": 1743,
      "26": 1744,
      "##atu": 1745,
      "##ct": 1746,
      "##72": 1747,
      "##ion": 1748,
      "##im": 1749,
      "##sb": 1750,
      "27": 1751,
      "##ig": 1752,
      "14": 1753,
      "##95": 1754,
      "##ty": 1755,
      "##ei": 1756,
      "##em": 1757,
      "##ata": 1758,
      "get": 1759,
      "no": 1760,
      "##av": 1761,
      "##service": 1762,
      "##ceiv": 1763,
      "29": 1764,
      "0x": 1765,
      "##43": 1766,
      "##ation": 1767,
      "##hon": 1768,
      "13": 1769,
      "usb": 1770,
      "##ava": 1771,
      "##ver": 1772,
      "##if": 1773,
      "java": 1774,
      "is": 1775,
      "00": 1776,
      "receiv": 1777,
      "##device": 1778,
      "wp": 1779,
      "##ab": 1780,
      "##80": 1781,
      "at": 1782,
      "##82": 1783,
      "15": 1784,
      "##as": 1785,
      "##devicemanager": 1786,
      "usbdevicemanager": 1787,
      "##ctivi": 1788,
      "##el": 1789,
      "##ctivity": 1790,
      "##nter": 1791,
      "phon": 1792,
      "##ol": 1793,
      "pro": 1794,
      "2852": 1795,
      "1772": 1796,
      "##ec": 1797,
      "##ode": 1798,
      "16": 1799,
      "##53": 1800,
      "##is": 1801,
      "ch": 1802,
      "##pp": 1803,
      "##fa": 1804,
      "##um": 1805,
      "##end": 1806,
      "09": 1807,
      "received": 1808,
      "1743": 1809,
      "##ppl": 1810,
      "ms": 1811,
      "##th": 1812,
      "##tif": 1813,
      "##33": 1814,
      "1795": 1815,
      "##ib": 1816,
      "##pro": 1817,
      "file": 1818,
      "01": 1819,
      "sock": 1820,
      "##ower": 1821,
      "##il": 1822,
      "##onne": 1823,
      "24": 1824,
      "##mar": 1825,
      "##pplic": 1826,
      "in": 1827,
      "##ant": 1828,
      "##event": 1829,
      "##ype": 1830,
      "##atus": 1831,
      "##ur": 1832,
      "##ork": 1833,
      "net": 1834,
      "##47": 1835,
      "##ign": 1836,
      "##ull": 1837,
      "to": 1838,
      "wpa": 1839,
      "##te": 1840,
      "int": 1841,
      "52": 1842,
      "##pplicant": 1843,
      "##face": 1844,
      "supplicant": 1845,
      "##fo": 1846,
      "len": 1847,
      "##ac": 1848,
      "null": 1849,
      "##work": 1850,
      "power": 1851,
      "##ifi": 1852,
      "##10": 1853,
      "phonei": 1854,
      "##ast": 1855,
      "on": 1856,
      "##tr": 1857,
      "##ignal": 1858,
      "##cont": 1859,
      "38": 1860,
      "##oo": 1861,
      "02": 1862,
      "##managerservice": 1863,
      "05": 1864,
      "55": 1865,
      "socket": 1866,
      "##roll": 1867,
      "read": 1868,
      "03": 1869,
      "3053": 1870,
      "782": 1871,
      "##66": 1872,
      "39": 1873,
      "51": 1874,
      "7827": 1875,
      "wa": 1876,
      "##onnect": 1877,
      "##os": 1878,
      "##enab": 1879,
      "##ul": 1880,
      "2280": 1881,
      "notif": 1882,
      "##ction": 1883,
      "uevent": 1884,
      "##la": 1885,
      "##data": 1886,
      "##aw": 1887,
      "##cv": 1888,
      "35": 1889,
      "04": 1890,
      "37": 1891,
      "##nterface": 1892,
      "##all": 1893,
      "##ew": 1894,
      "40": 1895,
      "sub": 1896,
      "36": 1897,
      "##ff": 1898,
      "41": 1899,
      "##un": 1900,
      "##roller": 1901,
      "##state": 1902,
      "44": 1903,
      "##put": 1904,
      "##olic": 1905,
      "##rom": 1906,
      "msg": 1907,
      "59": 1908,
      "##og": 1909,
      "##000": 1910,
      "42": 1911,
      "##uaw": 1912,
      "##uawei": 1913,
      "send": 1914,
      "lib": 1915,
      "rcv": 1916,
      "##93": 1917,
      "##uf": 1918,
      "43": 1919,
      "type": 1920,
      "boo": 1921,
      "##48": 1922,
      "##and": 1923,
      "##per": 1924,
      "##tion": 1925,
      "un": 1926,
      "##pd": 1927,
      "##signal": 1928,
      "##mary": 1929,
      "##ex": 1930,
      "##ummary": 1931,
      "##69": 1932,
      "activity": 1933,
      "##sc": 1934,
      "##controller": 1935,
      "huawei": 1936,
      "45": 1937,
      "##ack": 1938,
      "50": 1939,
      "##ge": 1940,
      "##server": 1941,
      "data": 1942,
      "##adc": 1943,
      "2700": 1944,
      "de": 1945,
      "34": 1946,
      "57": 1947,
      "##23": 1948,
      "##roadc": 1949,
      "##roadcast": 1950,
      "49": 1951,
      "rcvr": 1952,
      "cnd": 1953,
      "from": 1954,
      "network": 1955,
      "##ocation": 1956,
      "##age": 1957,
      "##ust": 1958,
      "##com": 1959,
      "48": 1960,
      "##led": 1961,
      "event": 1962,
      "##16": 1963,
      "##ev": 1964,
      "prot": 1965,
      "53": 1966,
      "powermanagerservice": 1967,
      "##observer": 1968,
      "##obile": 1969,
      "##vid": 1970,
      "io": 1971,
      "notify": 1972,
      "##obuf": 1973,
      "56": 1974,
      "protobuf": 1975,
      "##stre": 1976,
      "##era": 1977,
      "##74": 1978,
      "##onnected": 1979,
      "46": 1980,
      "##til": 1981,
      "th": 1982,
      "subid": 1983,
      "58": 1984,
      "##io": 1985,
      "##cess": 1986,
      "action": 1987,
      "##ature": 1988,
      "##yst": 1989,
      "47": 1990,
      "##ter": 1991,
      "##read": 1992,
      "hwc": 1993,
      "##info": 1994,
      "##98": 1995,
      "##ystem": 1996,
      "##cp": 1997,
      "##71": 1998,
      "##view": 1999,
      "54": 2000,
      "260": 2001,
      "dis": 2002,
      "char": 2003,
      "ueventobserver": 2004,
      "##me": 2005,
      "##12": 2006,
      "ser": 2007,
      "##util": 2008,
      "ret": 2009,
      "er": 2010,
      "##ke": 2011,
      "##olicy": 2012,
      "##lass": 2013,
      "##val": 2014,
      "##ame": 2015,
      "##92": 2016,
      "set": 2017,
      "##83": 2018,
      "##ness": 2019,
      "##li": 2020,
      "sd": 2021,
      "##status": 2022,
      "mode": 2023,
      "fl": 2024,
      "status": 2025,
      "##ks": 2026,
      "##alg": 2027,
      "##02": 2028,
      "##mi": 2029,
      "##activity": 2030,
      "##nterfacemanager": 2031,
      "phoneinterfacemanager": 2032,
      "##lock": 2033,
      "ad": 2034,
      "##utils": 2035,
      "##ror": 2036,
      "##enabled": 2037,
      "upd": 2038,
      "##us": 2039,
      "##teec": 2040,
      "libteec": 2041,
      "##ication": 2042,
      "##gr": 2043,
      "##14": 2044,
      "##amera": 2045,
      "os": 2046,
      "##uto": 2047,
      "##itor": 2048,
      "##70": 2049,
      "##ress": 2050,
      "##ers": 2051,
      "##input": 2052,
      "call": 2053,
      "##ual": 2054,
      "##ind": 2055,
      "##ntf": 2056,
      "2605": 2057,
      "##ption": 2058,
      "##ord": 2059,
      "##stream": 2060,
      "##mode": 2061,
      "##impl": 2062,
      "broadcast": 2063,
      "wifi": 2064,
      "##user": 2065,
      "##atch": 2066,
      "##99": 2067,
      "##ht": 2068,
      "##gress": 2069,
      "##onitor": 2070,
      "getdata": 2071,
      "##mgr": 2072,
      "##11": 2073,
      "##gth": 2074,
      "##ub": 2075,
      "phoneintf": 2076,
      "phoneintfmgr": 2077,
      "getdataenabled": 2078,
      "auto": 2079,
      "au": 2080,
      "##ot": 2081,
      "##int": 2082,
      "##68": 2083,
      "ex": 2084,
      "##obilesignal": 2085,
      "##obilesignalcontroller": 2086,
      "error": 2087,
      "0x1": 2088,
      "##nss": 2089,
      "fe": 2090,
      "sdk": 2091,
      "##ta": 2092,
      "##location": 2093,
      "##cord": 2094,
      "##evel": 2095,
      "level": 2096,
      "wps": 2097,
      "##inputstream": 2098,
      "fileinputstream": 2099,
      "or": 2100,
      "##und": 2101,
      "100": 2102,
      "##thread": 2103,
      "##es": 2104,
      "uid": 2105,
      "feature": 2106,
      "##ay": 2107,
      "##progress": 2108,
      "0x10": 2109,
      "##vider": 2110,
      "##ho": 2111,
      "##57": 2112,
      "##miss": 2113,
      "##ory": 2114,
      "##cc": 2115,
      "##ard": 2116,
      "##ight": 2117,
      "##ine": 2118,
      "##18": 2119,
      "##up": 2120,
      "attr": 2121,
      "##ep": 2122,
      "##ire": 2123,
      "##ist": 2124,
      "##mn": 2125,
      "##record": 2126,
      "##ap": 2127,
      "##67": 2128,
      "##plet": 2129,
      "##own": 2130,
      "##ort": 2131,
      "me": 2132,
      "##tt": 2133,
      "##md": 2134,
      "##ang": 2135,
      "##ash": 2136,
      "gnss": 2137,
      "policy": 2138,
      "phone": 2139,
      "##64": 2140,
      "##art": 2141,
      "##pleted": 2142,
      "wake": 2143,
      "activitymanager": 2144,
      "adj": 2145,
      "##ssage": 2146,
      "boost": 2147,
      "for": 2148,
      "wait": 2149,
      "system": 2150,
      "##wifi": 2151,
      "man": 2152,
      "update": 2153,
      "##enable": 2154,
      "##lev": 2155,
      "##84": 2156,
      "##tcom": 2157,
      "not": 2158,
      "fil": 2159,
      "##ful": 2160,
      "reading": 2161,
      "flag": 2162,
      "##90": 2163,
      "ready": 2164,
      "##fulness": 2165,
      "gett": 2166,
      "##94": 2167,
      "manual": 2168,
      "##userid": 2169,
      "server": 2170,
      "wakefulness": 2171,
      "##inprogress": 2172,
      "##tcompleted": 2173,
      "bootcompleted": 2174,
      "uas": 2175,
      "wks": 2176,
      "##modeenable": 2177,
      "boostinprogress": 2178,
      "waitmodeenable": 2179,
      "uasummary": 2180,
      "wksummary": 2181,
      "hwcust": 2182,
      "##que": 2183,
      "##20": 2184,
      "##ach": 2185,
      "intent": 2186,
      "##ys": 2187,
      "##54": 2188,
      "##521": 2189,
      "##app": 2190,
      "633": 2191,
      "##30": 2192,
      "str": 2193,
      "2633": 2194,
      "en": 2195,
      "##type": 2196,
      "##sh": 2197,
      "##mobilesignalcontroller": 2198,
      "pid": 2199,
      "##monitor": 2200,
      "uns": 2201,
      "class": 2202,
      "##65": 2203,
      "##gro": 2204,
      "hand": 2205,
      "vo": 2206,
      "be": 2207,
      "cont": 2208,
      "##ception": 2209,
      "con": 2210,
      "31521": 2211,
      "state": 2212,
      "##rent": 2213,
      "tem": 2214,
      "0x0": 2215,
      "cre": 2216,
      "2647": 2217,
      "aud": 2218,
      "##atter": 2219,
      "flags": 2220,
      "##ms": 2221,
      "##marta": 2222,
      "message": 2223,
      "##martae": 2224,
      "##36": 2225,
      "##15": 2226,
      "filen": 2227,
      "loc": 2228,
      "##provider": 2229,
      "##no": 2230,
      "id": 2231,
      "##ange": 2232,
      "##connected": 2233,
      "##ans": 2234,
      "##ri": 2235,
      "##reen": 2236,
      "##attery": 2237,
      "out": 2238,
      "cmd": 2239,
      "sc": 2240,
      "##able": 2241,
      "2016": 2242,
      "connected": 2243,
      "##85": 2244,
      "##ger": 2245,
      "##ect": 2246,
      "wl": 2247,
      "charge": 2248,
      "ctr": 2249,
      "ctrl": 2250,
      "##anged": 2251,
      "110": 2252,
      "##exception": 2253,
      "318": 2254,
      "audio": 2255,
      "##76": 2256,
      "##con": 2257,
      "##permiss": 2258,
      "##lient": 2259,
      "run": 2260,
      "##cent": 2261,
      "##cl": 2262,
      "void": 2263,
      "##peg": 2264,
      "dec": 2265,
      "##oad": 2266,
      "jpeg": 2267,
      "##96": 2268,
      "app": 2269,
      "fileutils": 2270,
      "res": 2271,
      "##25": 2272,
      "##24": 2273,
      "##ime": 2274,
      "##uevent": 2275,
      "onuevent": 2276,
      "##cpstatus": 2277,
      "ueventthread": 2278,
      "0userid": 2279,
      "##urrent": 2280,
      "##17": 2281,
      "log": 2282,
      "63": 2283,
      "##ey": 2284,
      "al": 2285,
      "process": 2286,
      "1000": 2287,
      "##out": 2288,
      "##0000": 2289,
      "##etwork": 2290,
      "##icon": 2291,
      "##50": 2292,
      "##ctory": 2293,
      "##ited": 2294,
      "sh": 2295,
      "##ive": 2296,
      "key": 2297,
      "##osmartae": 2298,
      "ac": 2299,
      "##eb": 2300,
      "60": 2301,
      "##indow": 2302,
      "cr": 2303,
      "##atusb": 2304,
      "##atusbar": 2305,
      "wlan": 2306,
      "##77": 2307,
      "##55": 2308,
      "unk": 2309,
      "##ir": 2310,
      "mm": 2311,
      "##locked": 2312,
      "##ating": 2313,
      "##46": 2314,
      "##mcc": 2315,
      "11093": 2316,
      "##port": 2317,
      "##file": 2318,
      "user": 2319,
      "##91": 2320,
      "80": 2321,
      "##mccmn": 2322,
      "##mccmnc": 2323,
      "hwcustmobilesignalcontroller": 2324,
      "hwcustmobilesignalcontrollerimpl": 2325,
      "##etho": 2326,
      "##ethod": 2327,
      "3371": 2328,
      "##ail": 2329,
      "##achine": 2330,
      "##machine": 2331,
      "handle": 2332,
      "##ase": 2333,
      "##32": 2334,
      "dire": 2335,
      "##tification": 2336,
      "##954": 2337,
      "sen": 2338,
      "##mo": 2339,
      "##unt": 2340,
      "disconnected": 2341,
      "wlan0": 2342,
      "##for": 2343,
      "rtt": 2344,
      "##play": 2345,
      "##statemachine": 2346,
      "del": 2347,
      "##ative": 2348,
      "##ith": 2349,
      "##olicited": 2350,
      "unsolicited": 2351,
      "##ense": 2352,
      "##ingers": 2353,
      "##ingersense": 2354,
      "##sp": 2355,
      "length": 2356,
      "##locationprovider": 2357,
      "31954": 2358,
      "tcp": 2359,
      "##urn": 2360,
      "reco": 2361,
      "##lu": 2362,
      "gnsslocationprovider": 2363,
      "##ze": 2364,
      "##56": 2365,
      "##58": 2366,
      "##time": 2367,
      "##unch": 2368,
      "phoneid": 2369,
      "##pen": 2370,
      "##mal": 2371,
      "##44": 2372,
      "the": 2373,
      "retval": 2374,
      "cne": 2375,
      "##ppalg": 2376,
      "##88": 2377,
      "##ult": 2378,
      "##old": 2379,
      "2374": 2380,
      "##13": 2381,
      "##73": 2382,
      "hwp": 2383,
      "creating": 2384,
      "##vis": 2385,
      "2266": 2386,
      "crash": 2387,
      "ippalg": 2388,
      "##dr": 2389,
      "unkown": 2390,
      "##42": 2391,
      "crashed": 2392,
      "##uster": 2393,
      "recover": 2394,
      "recovering": 2395,
      "##kt": 2396,
      "##cluster": 2397,
      "##clusterview": 2398,
      "hit": 2399,
      "##ffic": 2400,
      "notification": 2401,
      "ten": 2402,
      "tencent": 2403,
      "##ition": 2404,
      "##gu": 2405,
      "eos": 2406,
      "##uth": 2407,
      "##fl": 2408,
      "##affic": 2409,
      "##tm": 2410,
      "start": 2411,
      "##arm": 2412,
      "##28": 2413,
      "##broadcast": 2414,
      "##class": 2415,
      "##log": 2416,
      "##19": 2417,
      "##79": 2418,
      "##name": 2419,
      "##guard": 2420,
      "##ain": 2421,
      "##db": 2422,
      "such": 2423,
      "83": 2424,
      "cn": 2425,
      "##uncher": 2426,
      "##ete": 2427,
      "##ible": 2428,
      "##connect": 2429,
      "90": 2430,
      "##ve": 2431,
      "return": 2432,
      "time": 2433,
      "show": 2434,
      "##ngth": 2435,
      "##ui": 2436,
      "##lect": 2437,
      "##xt": 2438,
      "##imit": 2439,
      "step": 2440,
      "native": 2441,
      "##system": 2442,
      "hwcamera": 2443,
      "##ater": 2444,
      "##40": 2445,
      "##battery": 2446,
      "ippalgosmartae": 2447,
      "##iont": 2448,
      "per": 2449,
      "##49": 2450,
      "##der": 2451,
      "temper": 2452,
      "##current": 2453,
      "rx": 2454,
      "directory": 2455,
      "##gin": 2456,
      "##22": 2457,
      "##valid": 2458,
      "##signalclusterview": 2459,
      "hwsignalclusterview": 2460,
      "signal": 2461,
      "qcamera": 2462,
      "192": 2463,
      "##right": 2464,
      "##75": 2465,
      "po": 2466,
      "##iontype": 2467,
      "do": 2468,
      "change": 2469,
      "2000": 2470,
      "az": 2471,
      "svid": 2472,
      "elev": 2473,
      "##imuth": 2474,
      "cn0": 2475,
      "azimuth": 2476,
      "##21": 2477,
      "792": 2478,
      "hme": 2479,
      "alarm": 2480,
      "delete": 2481,
      "tx": 2482,
      "ss": 2483,
      "##connector": 2484,
      "##ize": 2485,
      "##arn": 2486,
      "##78": 2487,
      "snd": 2488,
      "##26": 2489,
      "##peed": 2490,
      "fail": 2491,
      "sec": 2492,
      "614": 2493,
      "ptm": 2494,
      "##qu": 2495,
      "##watch": 2496,
      "255": 2497,
      "hwsystem": 2498,
      "##changed": 2499,
      "3069": 2500,
      "warn": 2501,
      "web": 2502,
      "##dog": 2503,
      "##to": 2504,
      "open": 2505,
      "pre": 2506,
      "##watchdog": 2507,
      "huaweiwifi": 2508,
      "##watchdogstatemachine": 2509,
      "huaweiwifiwatchdogstatemachine": 2510,
      "##eck": 2511,
      "device": 2512,
      "823": 2513,
      "method": 2514,
      "##uch": 2515,
      "##ermal": 2516,
      "##emp": 2517,
      "##network": 2518,
      "fre": 2519,
      "init": 2520,
      "##ide": 2521,
      "##ug": 2522,
      "location": 2523,
      "##rightness": 2524,
      "##group": 2525,
      "u0": 2526,
      "70": 2527,
      "##level": 2528,
      "screen": 2529,
      "client": 2530,
      "73": 2531,
      "##89": 2532,
      "ar": 2533,
      "5157": 2534,
      "mis": 2535,
      "trans": 2536,
      "name": 2537,
      "col": 2538,
      "mag": 2539,
      "ap": 2540,
      "service": 2541,
      "##set": 2542,
      "210": 2543,
      "31870": 2544,
      "326": 2545,
      "##text": 2546,
      "use": 2547,
      "146": 2548,
      "##sv": 2549,
      "##aram": 2550,
      "thermal": 2551,
      "##elock": 2552,
      "window": 2553,
      "##queue": 2554,
      "##chr": 2555,
      "filenode": 2556,
      "gettemp": 2557,
      "filenodeinfo": 2558,
      "gettempinfo": 2559,
      "new": 2560,
      "pack": 2561,
      "##receiv": 2562,
      "deco": 2563,
      "wr": 2564,
      "##aem": 2565,
      "temperature": 2566,
      "##aemon": 2567,
      "##ffect": 2568,
      "ba": 2569,
      "##dconnector": 2570,
      "hwsystemmanager": 2571,
      "##scri": 2572,
      "begin": 2573,
      "traffic": 2574,
      "187": 2575,
      "display": 2576,
      "##ry": 2577,
      "2869": 2578,
      "cl": 2579,
      "2366": 2580,
      "so": 2581,
      "stack": 2582,
      "output": 2583,
      "##found": 2584,
      "report": 2585,
      "##inter": 2586,
      "interface": 2587,
      "267": 2588,
      "##foundexception": 2589,
      "info": 2590,
      "##otfoundexception": 2591,
      "##est": 2592,
      "##strength": 2593,
      "##used": 2594,
      "##xy": 2595,
      "##ning": 2596,
      "##upd": 2597,
      "##sor": 2598,
      "content": 2599,
      "##ubid": 2600,
      "##ler": 2601,
      "##87": 2602,
      "##form": 2603,
      "icon": 2604,
      "##interface": 2605,
      "##wa": 2606,
      "##ement": 2607,
      "se": 2608,
      "##notification": 2609,
      "##39": 2610,
      "##management": 2611,
      "##lux": 2612,
      "##mand": 2613,
      "charger": 2614,
      "##permission": 2615,
      "##ask": 2616,
      "he": 2617,
      "##ish": 2618,
      "##quest": 2619,
      "##enc": 2620,
      "##call": 2621,
      "##hand": 2622,
      "##inish": 2623,
      "##ated": 2624,
      "##ssi": 2625,
      "##vp": 2626,
      "sys": 2627,
      "##svc": 2628,
      "##process": 2629,
      "##86": 2630,
      "321": 2631,
      "##rol": 2632,
      "keyguard": 2633,
      "##kelock": 2634,
      "2098": 2635,
      "receive": 2636,
      "##po": 2637,
      "##nel": 2638,
      "##devent": 2639,
      "const": 2640,
      "sendbroadcast": 2641,
      "hwbattery": 2642,
      "##policy": 2643,
      "tag": 2644,
      "##intent": 2645,
      "filenotfoundexception": 2646,
      "command": 2647,
      "statusbar": 2648,
      "sendevent": 2649,
      "##algo": 2650,
      "an": 2651,
      "failed": 2652,
      "##ithm": 2653,
      "baid": 2654,
      "##orithm": 2655,
      "hwactivity": 2656,
      "##algorithm": 2657,
      "enter": 2658,
      "##ity": 2659,
      "stacksc": 2660,
      "invalid": 2661,
      "magic": 2662,
      "##list": 2663,
      "312": 2664,
      "##ni": 2665,
      "##onnectivity": 2666,
      "##stat": 2667,
      "##63": 2668,
      "##pt": 2669,
      "2147": 2670,
      "1033": 2671,
      "hwactivitymanagerservice": 2672,
      "##ground": 2673,
      "4g": 2674,
      "##59": 2675,
      "hwbatteryservice": 2676,
      "water": 2677,
      "fcpstatus": 2678,
      "ovp": 2679,
      "scpstatus": 2680,
      "ovpstatus": 2681,
      "readtext": 2682,
      "readtextfile": 2683,
      "##rused": 2684,
      "intrused": 2685,
      "val": 2686,
      "##scription": 2687,
      "locsvc": 2688,
      "deb": 2689,
      "##fil": 2690,
      "660": 2691,
      "##step": 2692,
      "5548": 2693,
      "daemon": 2694,
      "##asks": 2695,
      "finish": 2696,
      "362": 2697,
      "##gs": 2698,
      "ue": 2699,
      "##61": 2700,
      "remo": 2701,
      "##visible": 2702,
      "mpermiss": 2703,
      "sendbroadcastpermission": 2704,
      "mpermissiontype": 2705,
      "##card": 2706,
      "##ell": 2707,
      "bss": 2708,
      "##41": 2709,
      "##4836": 2710,
      "21474836": 2711,
      "##ator": 2712,
      "##apper": 2713,
      "##fig": 2714,
      "168": 2715,
      "hold": 2716,
      "2147483647": 2717,
      "la": 2718,
      "touch": 2719,
      "##ery": 2720,
      "##start": 2721,
      "wif": 2722,
      "rssi": 2723,
      "suc": 2724,
      "##aramet": 2725,
      "3218": 2726,
      "hash": 2727,
      "32152": 2728,
      "##97": 2729,
      "stre": 2730,
      "check": 2731,
      "##filter": 2732,
      "##ace": 2733,
      "##ener": 2734,
      "##currentb": 2735,
      "clo": 2736,
      "##plmn": 2737,
      "##ysim": 2738,
      "iscurrentb": 2739,
      "strmccmnc": 2740,
      "strplmn": 2741,
      "hashmccmnc": 2742,
      "iscurrentbysim": 2743,
      "2130": 2744,
      "mobile": 2745,
      "processrecord": 2746,
      "242": 2747,
      "networkmanagement": 2748,
      "##emode": 2749,
      "temp": 2750,
      "##get": 2751,
      "##arameters": 2752,
      "qsc": 2753,
      "mq": 2754,
      "notifyinterface": 2755,
      "6604": 2756,
      "inter": 2757,
      "213083": 2758,
      "##uid": 2759,
      "##uc": 2760,
      "##her": 2761,
      "##urce": 2762,
      "##content": 2763,
      "fingersense": 2764,
      "wifipro": 2765,
      "##patch": 2766,
      "##classactivity": 2767,
      "notifyinterfaceclassactivity": 2768,
      "real": 2769,
      "has": 2770,
      "##segs": 2771,
      "##erapp": 2772,
      "hwphon": 2773,
      "##51": 2774,
      "##by": 2775,
      "##ush": 2776,
      "mqos": 2777,
      "back": 2778,
      "##ps": 2779,
      "callerapp": 2780,
      "lock": 2781,
      "3626": 2782,
      "appl": 2783,
      "end": 2784,
      "2312": 2785,
      "##back": 2786,
      "vis": 2787,
      "##abled": 2788,
      "##37": 2789,
      "##client": 2790,
      "debug": 2791,
      "##description": 2792,
      "##screen": 2793,
      "ioexception": 2794,
      "0x23": 2795,
      "trafficmonitor": 2796,
      "##00000": 2797,
      "##pload": 2798,
      "##ency": 2799,
      "wrapper": 2800,
      "networkcontroller": 2801,
      "err": 2802,
      "##fw": 2803,
      "libf": 2804,
      "libfingersense": 2805,
      "##tx": 2806,
      "enqueue": 2807,
      "wh": 2808,
      "##jni": 2809,
      "ob": 2810,
      "changed": 2811,
      "##key": 2812,
      "launcher": 2813,
      "ssid": 2814,
      "##lob": 2815,
      "##lobal": 2816,
      "##anel": 2817,
      "##ext": 2818,
      "314": 2819,
      "##col": 2820,
      "##45": 2821,
      "limit": 2822,
      "does": 2823,
      "apply": 2824,
      "##kts": 2825,
      "thread": 2826,
      "color": 2827,
      "by": 2828,
      "##hw": 2829,
      "##update": 2830,
      "caller": 2831,
      "31220": 2832,
      "##infl": 2833,
      "size": 2834,
      "pl": 2835,
      "##fault": 2836,
      "iface": 2837,
      "##kg": 2838,
      "effect": 2839,
      "off": 2840,
      "5224": 2841,
      "global": 2842,
      "##aming": 2843,
      "can": 2844,
      "82": 2845,
      "##lot": 2846,
      "372": 2847,
      "##ump": 2848,
      "calling": 2849,
      "wakelock": 2850,
      "5948": 2851,
      "##load": 2852,
      "##rollalgorithm": 2853,
      "stackscrollalgorithm": 2854,
      "pkg": 2855,
      "tot": 2856,
      "##base": 2857,
      "success": 2858,
      "24266": 2859,
      "wifiprojni": 2860,
      "close": 2861,
      "poll": 2862,
      "684": 2863,
      "##ure": 2864,
      "##pa": 2865,
      "##buf": 2866,
      "permiss": 2867,
      "1781": 2868,
      "##ont": 2869,
      "bssid": 2870,
      "tasks": 2871,
      "powermanager": 2872,
      "ash": 2873,
      "772": 2874,
      "networkutils": 2875,
      "freq": 2876,
      "##ken": 2877,
      "##comp": 2878,
      "mobilesignalcontroller": 2879,
      "acqu": 2880,
      "susp": 2881,
      "suspend": 2882,
      "180": 2883,
      "##roaming": 2884,
      "bet": 2885,
      "sensor": 2886,
      "battery": 2887,
      "##2302": 2888,
      "enqueueing": 2889,
      "limiting": 2890,
      "##ly": 2891,
      "20002302": 2892,
      "##sim": 2893,
      "##ax": 2894,
      "##verla": 2895,
      "push": 2896,
      "##ore": 2897,
      "835": 2898,
      "netdconnector": 2899,
      "connectivity": 2900,
      "list": 2901,
      "##tes": 2902,
      "##alth": 2903,
      "order": 2904,
      "802": 2905,
      "ws": 2906,
      "msubid": 2907,
      "##verlap": 2908,
      "broadcastrecord": 2909,
      "##speed": 2910,
      "##ting": 2911,
      "##plan": 2912,
      "##uration": 2913,
      "count": 2914,
      "##iti": 2915,
      "##ctive": 2916,
      "isroaming": 2917,
      "##ulp": 2918,
      "libulp": 2919,
      "pr": 2920,
      "##trans": 2921,
      "##34": 2922,
      "hex": 2923,
      "##bar": 2924,
      "##be": 2925,
      "baidu": 2926,
      "##irplan": 2927,
      "2293": 2928,
      "##power": 2929,
      "camera": 2930,
      "table": 2931,
      "##istory": 2932,
      "229376": 2933,
      "sndbuf": 2934,
      "outq": 2935,
      "rele": 2936,
      "scan": 2937,
      "decoder": 2938,
      "qu": 2939,
      "2323": 2940,
      "##receiver": 2941,
      "##ernetwork": 2942,
      "##irplanemode": 2943,
      "getting": 2944,
      "vol": 2945,
      "all": 2946,
      "request": 2947,
      "block": 2948,
      "input": 2949,
      "package": 2950,
      "obj": 2951,
      "flg": 2952,
      "##472": 2953,
      "2596": 2954,
      "##atform": 2955,
      "3298": 2956,
      "ctx": 2957,
      "activityin": 2958,
      "activityout": 2959,
      "##781": 2960,
      "platform": 2961,
      "10334": 2962,
      "##ocket": 2963,
      "1012": 2964,
      "health": 2965,
      "ordered": 2966,
      "alarmmanager": 2967,
      "##sent": 2968,
      "##action": 2969,
      "##ql": 2970,
      "##ending": 2971,
      "0x4": 2972,
      "signalstrength": 2973,
      "##dump": 2974,
      "proxy": 2975,
      "create": 2976,
      "##one": 2977,
      "##unning": 2978,
      "##atestate": 2979,
      "pub": 2980,
      "##change": 2981,
      "##sser": 2982,
      "200": 2983,
      "getor": 2984,
      "##inflatestate": 2985,
      "getorinflatestate": 2986,
      "##cd": 2987,
      "provider": 2988,
      "hexdump": 2989,
      "##ele": 2990,
      "receiver": 2991,
      "##otification": 2992,
      "ext": 2993,
      "##sservice": 2994,
      "##off": 2995,
      "##launcher": 2996,
      "code": 2997,
      "##lav": 2998,
      "##tice": 2999,
      "getr": 3000,
      "##fr": 3001,
      "##see": 3002,
      "##ume": 3003,
      "hwlauncher": 3004,
      "notice": 3005,
      "chr": 3006,
      "##edata": 3007,
      "##handler": 3008,
      "##listener": 3009,
      "hwmobilesignalcontroller": 3010,
      "3362": 3011,
      "##edi": 3012,
      "up": 3013,
      "72": 3014,
      "##arget": 3015,
      "lte": 3016,
      "sql": 3017,
      "current": 3018,
      "##781472": 3019,
      "3362781472": 3020,
      "##evt": 3021,
      "pubevt": 3022,
      "monitor": 3023,
      "stream": 3024,
      "##ld": 3025,
      "icongroup": 3026,
      "acdb": 3027,
      "vide": 3028,
      "result": 3029,
      "##op": 3030,
      "hwchr": 3031,
      "sho": 3032,
      "shoul": 3033,
      "160": 3034,
      "##ud": 3035,
      "##phon": 3036,
      "##ment": 3037,
      "ams": 3038,
      "##atet": 3039,
      "ul": 3040,
      "cur": 3041,
      "value": 3042,
      "old": 3043,
      "##iy": 3044,
      "pa": 3045,
      "##ise": 3046,
      "hwwifi": 3047,
      "exp": 3048,
      "##statusbar": 3049,
      "##msg": 3050,
      "systemui": 3051,
      "dispatch": 3052,
      "query": 3053,
      "##net": 3054,
      "##parameters": 3055,
      "1010": 3056,
      "##resh": 3057,
      "##ache": 3058,
      "##wif": 3059,
      "##so": 3060,
      "##cur": 3061,
      "##nl": 3062,
      "comm": 3063,
      "im": 3064,
      "##inger": 3065,
      "##elper": 3066,
      "##brightness": 3067,
      "##lub": 3068,
      "cell": 3069,
      "mo": 3070,
      "qcameraparameters": 3071,
      "101": 3072,
      "##aclub": 3073,
      "amsnl": 3074,
      "min": 3075,
      "##iyi": 3076,
      "3725": 3077,
      "betaclub": 3078,
      "##tim": 3079,
      "select": 3080,
      "control": 3081,
      "add": 3082,
      "##38": 3083,
      "last": 3084,
      "total": 3085,
      "##factory": 3086,
      "cnt": 3087,
      "##ient": 3088,
      "360": 3089,
      "##count": 3090,
      "##avi": 3091,
      "ind": 3092,
      "##wit": 3093,
      "##ility": 3094,
      "2928": 3095,
      "##from": 3096,
      "##appprocess": 3097,
      "blocker": 3098,
      "##31": 3099,
      "getrunning": 3100,
      "##appprocesses": 3101,
      "getrunningappprocesses": 3102,
      "##onnection": 3103,
      "##arp": 3104,
      "speed": 3105,
      "##ware": 3106,
      "background": 3107,
      "remov": 3108,
      "sendto": 3109,
      "##enotification": 3110,
      "##igned": 3111,
      "md": 3112,
      "##control": 3113,
      "hwpfw": 3114,
      "##677": 3115,
      "597": 3116,
      "sending": 3117,
      "##ifier": 3118,
      "any": 3119,
      "##method": 3120,
      "with": 3121,
      "we": 3122,
      "wakelocks": 3123,
      "lsc": 3124,
      "iss": 3125,
      "sv": 3126,
      "##cnt": 3127,
      "##rypt": 3128,
      "decode": 3129,
      "pending": 3130,
      "spl": 3131,
      "##ier": 3132,
      "unsigned": 3133,
      "default": 3134,
      "5283": 3135,
      "dosmartae": 3136,
      "dosmartaealgo": 3137,
      "##mobile": 3138,
      "down": 3139,
      "785": 3140,
      "##lay": 3141,
      "128": 3142,
      "max": 3143,
      "ta": 3144,
      "##crypt": 3145,
      "permission": 3146,
      "video": 3147,
      "84": 3148,
      "##bytes": 3149,
      "##pplication": 3150,
      "##amp": 3151,
      "hwarp": 3152,
      "##xx": 3153,
      "27677": 3154,
      "##verifier": 3155,
      "hwarpverifier": 3156,
      "##ary": 3157,
      "##act": 3158,
      "##04": 3159,
      "##004": 3160,
      "##add": 3161,
      "5165": 3162,
      "##27": 3163,
      "##ibility": 3164,
      "##mp": 3165,
      "phonestatusbar": 3166,
      "enabled": 3167,
      "source": 3168,
      "2607": 3169,
      "##cmd": 3170,
      "##socket": 3171,
      "bind": 3172,
      "##aut": 3173,
      "319": 3174,
      "finished": 3175,
      "##pend": 3176,
      "##receive": 3177,
      "incall": 3178,
      "arg": 3179,
      "3339": 3180,
      "hwo": 3181,
      "##pr": 3182,
      "lan": 3183,
      "237": 3184,
      "pendingintent": 3185,
      "##ired": 3186,
      "##ify": 3187,
      "##helper": 3188,
      "784": 3189,
      "955": 3190,
      "typeicon": 3191,
      "screenon": 3192,
      "##light": 3193,
      "of": 3194,
      "##802": 3195,
      "##window": 3196,
      "##gist": 3197,
      "##istoryrecord": 3198,
      "##ether": 3199,
      "visible": 3200,
      "qsee": 3201,
      "stat": 3202,
      "##ence": 3203,
      "sdcrypt": 3204,
      "sdcryptdconnector": 3205,
      "##enetwork": 3206,
      "split": 3207,
      "qseecom": 3208,
      "21308391": 3209,
      "networkspeed": 3210,
      "##vsim": 3211,
      "##collect": 3212,
      "onreceive": 3213,
      "##airplanemode": 3214,
      "##744": 3215,
      "mdata": 3216,
      "3858": 3217,
      "mslav": 3218,
      "##asternetwork": 3219,
      "mmasternetwork": 3220,
      "mslavenetwork": 3221,
      "##09": 3222,
      "3556": 3223,
      "##ink": 3224,
      "148": 3225,
      "##ku": 3226,
      "##igger": 3227,
      "misairplanemode": 3228,
      "bt": 3229,
      "1011": 3230,
      "##ximit": 3231,
      "4126": 3232,
      "96": 3233,
      "##fer": 3234,
      "##res": 3235,
      "##ft": 3236,
      "613": 3237,
      "##fif": 3238,
      "10010": 3239,
      "euid": 3240,
      "5215": 3241,
      "qual": 3242,
      "hwouc": 3243,
      "##anr": 3244,
      "pos": 3245,
      "##policymanager": 3246,
      "running": 3247,
      "nc": 3248,
      "handleanr": 3249,
      "##filterfif": 3250,
      "handleanrfilterfif": 3251,
      "handleanrfilterfifo": 3252,
      "target": 3253,
      "##witch": 3254,
      "##web": 3255,
      "##ite": 3256,
      "fr": 3257,
      "102": 3258,
      "##contentdescription": 3259,
      "ncchr": 3260,
      "130": 3261,
      "overlap": 3262,
      "##fore": 3263,
      "led": 3264,
      "apm": 3265,
      "load": 3266,
      "##message": 3267,
      "audiopolicymanager": 3268,
      "##comm": 3269,
      "##subid": 3270,
      "nl": 3271,
      "##cen": 3272,
      "act": 3273,
      "692": 3274,
      "dn": 3275,
      "5994": 3276,
      "##etect": 3277,
      "finger": 3278,
      "##ified": 3279,
      "present": 3280,
      "##pc": 3281,
      "par": 3282,
      "380": 3283,
      "ui": 3284,
      "##aps": 3285,
      "onsignal": 3286,
      "243": 3287,
      "##locklocation": 3288,
      "##ki": 3289,
      "1793": 3290,
      "##834": 3291,
      "extr": 3292,
      "##29": 3293,
      "audiomanager": 3294,
      "shouldb": 3295,
      "shouldblocklocation": 3296,
      "2867": 3297,
      "1481": 3298,
      "##onent": 3299,
      "##request": 3300,
      "2546": 3301,
      "##130": 3302,
      "qti": 3303,
      "##ick": 3304,
      "##yn": 3305,
      "970": 3306,
      "ne": 3307,
      "##bient": 3308,
      "##uan": 3309,
      "##upload": 3310,
      "interval": 3311,
      "##str": 3312,
      "ond": 3313,
      "acquire": 3314,
      "ulp": 3315,
      "##ffff": 3316,
      "slot": 3317,
      "##imary": 3318,
      "##ao": 3319,
      "classify": 3320,
      "getto": 3321,
      "##estate": 3322,
      "pkts": 3323,
      "util": 3324,
      "##config": 3325,
      "##transition": 3326,
      "mvsim": 3327,
      "br": 3328,
      "768": 3329,
      "##00400": 3330,
      "10000400": 3331,
      "##om": 3332,
      "0x103": 3333,
      "##point": 3334,
      "##cardtype": 3335,
      "##avig": 3336,
      "##curcardtype": 3337,
      "mvsimcurcardtype": 3338,
      "##groupvisible": 3339,
      "mobilegroupvisible": 3340,
      "hwphonestate": 3341,
      "anymobile": 3342,
      "anymobilevisible": 3343,
      "trigger": 3344,
      "config": 3345,
      "org": 3346,
      "reset": 3347,
      "114": 3348,
      "valid": 3349,
      "gps": 3350,
      "##transitions": 3351,
      "selected": 3352,
      "profile": 3353,
      "cust": 3354,
      "##ifs": 3355,
      "notificationmanager": 3356,
      "cta": 3357,
      "ctaifs": 3358,
      "##stepdata": 3359,
      "26744": 3360,
      "2964": 3361,
      "320": 3362,
      "##ellig": 3363,
      "##output": 3364,
      "75": 3365,
      "##active": 3366,
      "when": 3367,
      "##proxy": 3368,
      "##panel": 3369,
      "##pping": 3370,
      "tint": 3371,
      "upload": 3372,
      "panel": 3373,
      "##space": 3374,
      "##ernel": 3375,
      "ist": 3376,
      "##updatemonitor": 3377,
      "##35": 3378,
      "1046": 3379,
      "##locationchanged": 3380,
      "##tings": 3381,
      "main": 3382,
      "updated": 3383,
      "keyguardupdatemonitor": 3384,
      "##keyguard": 3385,
      "brightness": 3386,
      "kernel": 3387,
      "chin": 3388,
      "ok": 3389,
      "##igh": 3390,
      "af": 3391,
      "light": 3392,
      "##size": 3393,
      "69": 3394,
      "##ambient": 3395,
      "##flag": 3396,
      "##ca": 3397,
      "mcontrol": 3398,
      "mcontrolpoint": 3399,
      "300": 3400,
      "volume": 3401,
      "##ged": 3402,
      "primary": 3403,
      "3879": 3404,
      "hal": 3405,
      "if": 3406,
      "ski": 3407,
      "cb": 3408,
      "270": 3409,
      "##ound": 3410,
      "##ambientlux": 3411,
      "hid": 3412,
      "hwwifiservice": 3413,
      "work": 3414,
      "##rtt": 3415,
      "##ai": 3416,
      "num": 3417,
      "1001": 3418,
      "##ntry": 3419,
      "meit": 3420,
      "##pkts": 3421,
      "contentdescription": 3422,
      "u0a": 3423,
      "65": 3424,
      "##managerex": 3425,
      "##80211": 3426,
      "form": 3427,
      "meituan": 3428,
      "release": 3429,
      "handlelocationchanged": 3430,
      "handlelocationchangedlocked": 3431,
      "remove": 3432,
      "256": 3433,
      "##cond": 3434,
      "qos": 3435,
      "frequ": 3436,
      "31464": 3437,
      "bro": 3438,
      "##ensor": 3439,
      "##ild": 3440,
      "##annel": 3441,
      "networkspeedmanagerex": 3442,
      "locclient": 3443,
      "203": 3444,
      "pkt": 3445,
      "nl80211": 3446,
      "3180": 3447,
      "position": 3448,
      "##008": 3449,
      "##servicelocked": 3450,
      "##he": 3451,
      "##mod": 3452,
      "##avigation": 3453,
      "##nal": 3454,
      "before": 3455,
      "##etype": 3456,
      "token": 3457,
      "##code": 3458,
      "stop": 3459,
      "##notif": 3460,
      "##ename": 3461,
      "##uspend": 3462,
      "##elaps": 3463,
      "##elapsed": 3464,
      "##qq": 3465,
      "0c": 3466,
      "line": 3467,
      "dataconnected": 3468,
      "##visibility": 3469,
      "67": 3470,
      "iso": 3471,
      "1825": 3472,
      "exit": 3473,
      "imonitor": 3474,
      "##obao": 3475,
      "##roup": 3476,
      "2385": 3477,
      "4254": 3478,
      "tcpclient": 3479,
      "##unter": 3480,
      "hwwifiservicefactory": 3481,
      "10330": 3482,
      "taobao": 3483,
      "dt": 3484,
      "handler": 3485,
      "##ather": 3486,
      "##stamp": 3487,
      "san": 3488,
      "##kuai": 3489,
      "sankuai": 3490,
      "connect": 3491,
      "##rate": 3492,
      "##print": 3493,
      "##stats": 3494,
      "##1305": 3495,
      "##dis": 3496,
      "982": 3497,
      "hwambientlux": 3498,
      "##filteralgo": 3499,
      "hwambientluxfilteralgo": 3500,
      "108": 3501,
      "mobileqq": 3502,
      "##gister": 3503,
      "##pport": 3504,
      "20001305": 3505,
      "mp": 3506,
      "##are": 3507,
      "##min": 3508,
      "medi": 3509,
      "4492": 3510,
      "##chi": 3511,
      "##hdr": 3512,
      "##rst": 3513,
      "index": 3514,
      "exif": 3515,
      "250": 3516,
      "inet": 3517,
      "381": 3518,
      "##obil": 3519,
      "815": 3520,
      "##avigationbar": 3521,
      "##collectservice": 3522,
      "499": 3523,
      "hwg": 3524,
      "698": 3525,
      "##obiledata": 3526,
      "410": 3527,
      "blux": 3528,
      "dlux": 3529,
      "219": 3530,
      "295": 3531,
      "bu": 3532,
      "em": 3533,
      "filter": 3534,
      "##mobiledata": 3535,
      "cal": 3536,
      "##access": 3537,
      "achi": 3538,
      "achiev": 3539,
      "conn": 3540,
      "##820": 3541,
      "##map": 3542,
      "brain": 3543,
      "rg": 3544,
      "database": 3545,
      "10099": 3546,
      "61": 3547,
      "baidum": 3548,
      "##ctiv": 3549,
      "##ormal": 3550,
      "##ert": 3551,
      "##lean": 3552,
      "606": 3553,
      "##calling": 3554,
      "##atetime": 3555,
      "##condition": 3556,
      "##cel": 3557,
      "89": 3558,
      "##ocall": 3559,
      "##sm": 3560,
      "inetcondition": 3561,
      "timestamp": 3562,
      "baidumap": 3563,
      "ondata": 3564,
      "16893": 3565,
      "date": 3566,
      "##905": 3567,
      "tether": 3568,
      "##icator": 3569,
      "presently": 3570,
      "##ocus": 3571,
      "met": 3572,
      "##formation": 3573,
      "qmi": 3574,
      "71": 3575,
      "retri": 3576,
      "retriev": 3577,
      "##adding": 3578,
      "323": 3579,
      "##icont": 3580,
      "152": 3581,
      "vi": 3582,
      "2883": 3583,
      "transition": 3584,
      "mcurrent": 3585,
      "##ount": 3586,
      "achieved": 3587,
      "networktype": 3588,
      "watch": 3589,
      "tele": 3590,
      "1782": 3591,
      "direction": 3592,
      "ondataactivity": 3593,
      "parameters": 3594,
      "##4a": 3595,
      "##amount": 3596,
      "3608": 3597,
      "305": 3598,
      "duration": 3599,
      "enable": 3600,
      "120": 3601,
      "##center": 3602,
      "119": 3603,
      "msm": 3604,
      "2d": 3605,
      "##cdm": 3606,
      "issuspend": 3607,
      "switch": 3608,
      "object": 3609,
      "recv": 3610,
      "extras": 3611,
      "wm": 3612,
      "wid": 3613,
      "##indicator": 3614,
      "strength": 3615,
      "setmobiledata": 3616,
      "##logger": 3617,
      "##wide": 3618,
      "##indicatorsh": 3619,
      "##ypeicon": 3620,
      "typecontentdescription": 3621,
      "showactivity": 3622,
      "istypeicon": 3623,
      "strengthicon": 3624,
      "setmobiledataindicatorsh": 3625,
      "istypeiconwide": 3626,
      "setmobiledataindicatorshuawei": 3627,
      "##sem": 3628,
      "##wakelock": 3629,
      "hwpfwlogger": 3630,
      "cf": 3631,
      "ies": 3632,
      "64": 3633,
      "frame": 3634,
      "gw": 3635,
      "31868": 3636,
      "##erg": 3637,
      "htt": 3638,
      "##8916": 3639,
      "ip": 3640,
      "##ath": 3641,
      "##anded": 3642,
      "sim": 3643,
      "anim": 3644,
      "curr": 3645,
      "msm8916": 3646,
      "##error": 3647,
      "##ml": 3648,
      "##stepdatamanager": 3649,
      "connection": 3650,
      "eventtime": 3651,
      "2715": 3652,
      "icons": 3653,
      "##ched": 3654,
      "prev": 3655,
      "art": 3656,
      "2917": 3657,
      "##agename": 3658,
      "onoff": 3659,
      "inser": 3660,
      "mcc": 3661,
      "sensors": 3662,
      "##atr": 3663,
      "plu": 3664,
      "isem": 3665,
      "##3g": 3666,
      "1819": 3667,
      "3368": 3668,
      "164": 3669,
      "##estatusbar": 3670,
      "##par": 3671,
      "140": 3672,
      "hwphonestatusbar": 3673,
      "tick": 3674,
      "9555": 3675,
      "##ril": 3676,
      "2130839195": 3677,
      "eventcenter": 3678,
      "wifihw": 3679,
      "fingerprint": 3680,
      "68": 3681,
      "sound": 3682,
      "103": 3683,
      "it": 3684,
      "##cdmas": 3685,
      "000000": 3686,
      "##proximit": 3687,
      "mcdmas": 3688,
      "is3g": 3689,
      "mcdmaslot": 3690,
      "is3gcalling": 3691,
      "frequency": 3692,
      "303": 3693,
      "903": 3694,
      "ab": 3695,
      "##qiyi": 3696,
      "1590": 3697,
      "packagename": 3698,
      "av": 3699,
      "##oop": 3700,
      "bone": 3701,
      "##modified": 3702,
      "lastmodified": 3703,
      "link": 3704,
      "ifname": 3705,
      "8b": 3706,
      "channel": 3707,
      "media": 3708,
      "##flags": 3709,
      "sig": 3710,
      "##pack": 3711,
      "##cache": 3712,
      "##ae": 3713,
      "##uck": 3714,
      "est": 3715,
      "##elligent": 3716,
      "aware": 3717,
      "##imm": 3718,
      "cfg": 3719,
      "releas": 3720,
      "##ner": 3721,
      "tim": 3722,
      "##unnel": 3723,
      "##ade": 3724,
      "204": 3725,
      "2990": 3726,
      "2618": 3727,
      "rout": 3728,
      "sport": 3729,
      "3020": 3730,
      "##iff": 3731,
      "274": 3732,
      "2777": 3733,
      "16905": 3734,
      "iqiyi": 3735,
      "##iss": 3736,
      "hwchrwifi": 3737,
      "post": 3738,
      "##enum": 3739,
      "##information": 3740,
      "3021": 3741,
      "##new": 3742,
      "2619": 3743,
      "16894": 3744,
      "##steps": 3745,
      "##notifier": 3746,
      "324": 3747,
      "10111": 3748,
      "##ker": 3749,
      "5199": 3750,
      "9834": 3751,
      "chrom": 3752,
      "are": 3753,
      "##np": 3754,
      "##usic": 3755,
      "2942": 3756,
      "hwd": 3757,
      "ref": 3758,
      "ifaceclass": 3759,
      "dr": 3760,
      "noise": 3761,
      "mct": 3762,
      "2462": 3763,
      "##2p": 3764,
      "##nown": 3765,
      "125": 3766,
      "us": 3767,
      "active": 3768,
      "unknown": 3769,
      "78": 3770,
      "##anet": 3771,
      "818": 3772,
      "##ium": 3773,
      "qui": 3774,
      "257": 3775,
      "quipc": 3776,
      "gnp": 3777,
      "ig": 3778,
      "hwn": 3779,
      "task": 3780,
      "espace": 3781,
      "proc": 3782,
      "vib": 3783,
      "2369": 3784,
      "317": 3785,
      "ack": 3786,
      "343": 3787,
      "chromium": 3788,
      "##ffer": 3789,
      "##00000000": 3790,
      "pktcnt": 3791,
      "272": 3792,
      "##ood": 3793,
      "tcpclientthread": 3794,
      "##activ": 3795,
      "##ix": 3796,
      "2969": 3797,
      "480": 3798,
      "mr": 3799,
      "##ule": 3800,
      "##component": 3801,
      "144": 3802,
      "##ber": 3803,
      "view": 3804,
      "##ech": 3805,
      "##abl": 3806,
      "##datasubid": 3807,
      "currdatasubid": 3808,
      "##pol": 3809,
      "##broadcastqueue": 3810,
      "##bo": 3811,
      "2381": 3812,
      "3547": 3813,
      "removed": 3814,
      "262": 3815,
      "##ill": 3816,
      "##post": 3817,
      "943": 3818,
      "##arri": 3819,
      "bad": 3820,
      "2616": 3821,
      "##icinformation": 3822,
      "hwalgorithm": 3823,
      "hwalgorithmicinformation": 3824,
      "xml": 3825,
      "sess": 3826,
      "##ason": 3827,
      "stand": 3828,
      "stackscroller": 3829,
      "offset": 3830,
      "##color": 3831,
      "collect": 3832,
      "displaypower": 3833,
      "progress": 3834,
      "##chang": 3835,
      "releasing": 3836,
      "162": 3837,
      "had": 3838,
      "##onto": 3839,
      "1765": 3840,
      "webs": 3841,
      "##282": 3842,
      "##endsegs": 3843,
      "resp": 3844,
      "stub": 3845,
      "3168": 3846,
      "height": 3847,
      "tethering": 3848,
      "##803": 3849,
      "##ther": 3850,
      "3988": 3851,
      "logupload": 3852,
      "##03": 3853,
      "##iring": 3854,
      "74": 3855,
      "588": 3856,
      "273": 3857,
      "acquiring": 3858,
      "##ference": 3859,
      "##onse": 3860,
      "sqlite": 3861,
      "transiti": 3862,
      "transitionto": 3863,
      "##pkt": 3864,
      "##phone": 3865,
      "##05": 3866,
      "http": 3867,
      "##999": 3868,
      "receivers": 3869,
      "acc": 3870,
      "##ek": 3871,
      "cub": 3872,
      "##ute": 3873,
      "pushlog": 3874,
      "support": 3875,
      "2966": 3876,
      "##xp": 3877,
      "what": 3878,
      "325": 3879,
      "328": 3880,
      "hwchrweb": 3881,
      "mcurrentstate": 3882,
      "hwint": 3883,
      "updat": 3884,
      "ho": 3885,
      "cubic": 3886,
      "mn": 3887,
      "##dex": 3888,
      "1783": 3889,
      "##ice": 3890,
      "rxbytes": 3891,
      "121": 3892,
      "##andom": 3893,
      "sets": 3894,
      "##unce": 3895,
      "dns": 3896,
      "login": 3897,
      "##sole": 3898,
      "console": 3899,
      "##cene": 3900,
      "173": 3901,
      "hwchrwebmonitor": 3902,
      "application": 3903,
      "bar": 3904,
      "122": 3905,
      "##cb": 3906,
      "##default": 3907,
      "##iver": 3908,
      "123": 3909,
      "pushlog282": 3910,
      "getre": 3911,
      "qcril": 3912,
      "record": 3913,
      "powermanagernotifier": 3914,
      "##down": 3915,
      "sr": 3916,
      "##ird": 3917,
      "213": 3918,
      "ml": 3919,
      "only": 3920,
      "##imonitor": 3921,
      "delay": 3922,
      "327": 3923,
      "random": 3924,
      "##ens": 3925,
      "db": 3926,
      "382": 3927,
      "##handle": 3928,
      "callback": 3929,
      "117": 3930,
      "207": 3931,
      "##ging": 3932,
      "808": 3933,
      "##zed": 3934,
      "ed": 3935,
      "base": 3936,
      "wifimonitor": 3937,
      "##ught": 3938,
      "0x104a": 3939,
      "qosmonitor": 3940,
      "##fb": 3941,
      "comp": 3942,
      "settings": 3943,
      "##element": 3944,
      "qiyi": 3945,
      "unca": 3946,
      "378": 3947,
      "0x1044": 3948,
      "uncaught": 3949,
      "windowmanager": 3950,
      "common": 3951,
      "275": 3952,
      "115": 3953,
      "pe": 3954,
      "##auto": 3955,
      "113": 3956,
      "##otal": 3957,
      "buffer": 3958,
      "logdata": 3959,
      "2748": 3960,
      "390": 3961,
      "774": 3962,
      "109": 3963,
      "refresh": 3964,
      "lat": 3965,
      "sn": 3966,
      "trafficpanel": 3967,
      "1049": 3968,
      "315": 3969,
      "fd": 3970,
      "test": 3971,
      "entry": 3972,
      "2412": 3973,
      "cache": 3974,
      "ae": 3975,
      "vibrate": 3976,
      "##ergency": 3977,
      "##obrightness": 3978,
      "3578": 3979,
      "##vio": 3980,
      "download": 3981,
      "qcamera2": 3982,
      "deviceid": 3983,
      "##cted": 3984,
      "expired": 3985,
      "##methodmanagerservice": 3986,
      "need": 3987,
      "cancel": 3988,
      "3243": 3989,
      "##sr": 3990,
      "##atabase": 3991,
      "##music": 3992,
      "igno": 3993,
      "##lid": 3994,
      "ignore": 3995,
      "activityrecord": 3996,
      "priv": 3997,
      "called": 3998,
      "##tunnel": 3999,
      "##hid": 4000,
      "##task": 4001,
      "0xe": 4002,
      "previo": 4003,
      "previous": 4004,
      "##ateutils": 4005,
      "hwdateutils": 4006,
      "retrieve": 4007,
      "##adatetime": 4008,
      "##wid": 4009,
      "nat": 4010,
      "pri": 4011,
      "spe": 4012,
      "##check": 4013,
      "##onnectivityservice": 4014,
      "avail": 4015,
      "hwconnectivityservice": 4016,
      "mdat": 4017,
      "oem": 4018,
      "##elevel": 4019,
      "##pens": 4020,
      "0b": 4021,
      "##acon": 4022,
      "idle": 4023,
      "pendingintentrecord": 4024,
      "pfw": 4025,
      "##num": 4026,
      "##az": 4027,
      "803": 4028,
      "##home": 4029,
      "##phony": 4030,
      "124": 4031,
      "updatenotification": 4032,
      "##wser": 4033,
      "3382": 4034,
      "##br": 4035,
      "##pre": 4036,
      "##orage": 4037,
      "play": 4038,
      "##application": 4039,
      "##autobrightness": 4040,
      "10129": 4041,
      "updatet": 4042,
      "hwbrightness": 4043,
      "qcrilmsg": 4044,
      "##uchevent": 4045,
      "qcrilmsgtunnel": 4046,
      "330": 4047,
      "##mem": 4048,
      "##lation": 4049,
      "##cer": 4050,
      "retrieveservicelocked": 4051,
      "383": 4052,
      "##ysensor": 4053,
      "uint": 4054,
      "379": 4055,
      "wifistatemachine": 4056,
      "##translation": 4057,
      "##ewindow": 4058,
      "##ied": 4059,
      "getlocation": 4060,
      "uint32": 4061,
      "msim": 4062,
      "map": 4063,
      "##day": 4064,
      "v02": 4065,
      "##timpl": 4066,
      "607": 4067,
      "400": 4068,
      "onuser": 4069,
      "##mask": 4070,
      "minim": 4071,
      "##80393": 4072,
      "events": 4073,
      "0509": 4074,
      "disable": 4075,
      "050980393": 4076,
      "sched": 4077,
      "scen": 4078,
      "##immed": 4079,
      "##player": 4080,
      "##we": 4081,
      "##onscreen": 4082,
      "##patcher": 4083,
      "159": 4084,
      "##lip": 4085,
      "##dispatcher": 4086,
      "mext": 4087,
      "extdata": 4088,
      "mdatastate": 4089,
      "mdataactivity": 4090,
      "mmasternetworktype": 4091,
      "mmasternetworklevel": 4092,
      "mslavenetworktype": 4093,
      "mslavenetworklevel": 4094,
      "##anettype": 4095,
      "mdatanettype": 4096,
      "mextdata": 4097,
      "updatec": 4098,
      "131": 4099,
      "3302": 4100,
      "private": 4101,
      "smartae": 4102,
      "798": 4103,
      "animate": 4104,
      "le": 4105,
      "loader": 4106,
      "##total": 4107,
      "384": 4108,
      "compens": 4109,
      "low": 4110,
      "msf": 4111,
      "holdservice": 4112,
      "##atrue": 4113,
      "temperatrue": 4114,
      "240": 4115,
      "0x1047": 4116,
      "##itive": 4117,
      "##vol": 4118,
      "377": 4119,
      "##counter": 4120,
      "permissiondb": 4121,
      "107": 4122,
      "77": 4123,
      "##ere": 4124,
      "this": 4125,
      "response": 4126,
      "165": 4127,
      "sqlited": 4128,
      "newy": 4129,
      "##show": 4130,
      "62": 4131,
      "395": 4132,
      "sqlitedatabase": 4133,
      "##ppadding": 4134,
      "##notificationend": 4135,
      "overlapamount": 4136,
      "gettoppadding": 4137,
      "previousnotificationend": 4138,
      "getlocationonscreen": 4139,
      "newytranslation": 4140,
      "335": 4141,
      "storage": 4142,
      "sndr": 4143,
      "794": 4144,
      "14800": 4145,
      "systemmanager": 4146,
      "path": 4147,
      "2914": 4148,
      "##starttime": 4149,
      "469": 4150,
      "##819": 4151,
      "801": 4152,
      "inserth": 4153,
      "385": 4154,
      "tool": 4155,
      "##loop": 4156,
      "##visitor": 4157,
      "permissiontype": 4158,
      "permissiondbvisitor": 4159,
      "historyrecord": 4160,
      "##frame": 4161,
      "datestarttime": 4162,
      "inserthistoryrecord": 4163,
      "127": 4164,
      "##noupdate": 4165,
      "##ton": 4166,
      "##clog": 4167,
      "as": 4168,
      "nclog": 4169,
      "##ersion": 4170,
      "##head": 4171,
      "2750": 4172,
      "##oreffect": 4173,
      "##source": 4174,
      "2437": 4175,
      "94": 4176,
      "050980393userid": 4177,
      "pg": 4178,
      "353": 4179,
      "eng": 4180,
      "##parser": 4181,
      "hwre": 4182,
      "16058": 4183,
      "carri": 4184,
      "##ario": 4185,
      "198": 4186,
      "nclogcollectservice": 4187,
      "compensate": 4188,
      "##noupdatelocked": 4189,
      "version": 4190,
      "##internet": 4191,
      "##itmap": 4192,
      "rate": 4193,
      "oper": 4194,
      "##ecord": 4195,
      "win": 4196,
      "##ration": 4197,
      "112": 4198,
      "311": 4199,
      "ril": 4200,
      "247": 4201,
      "0x1011": 4202,
      "activitythread": 4203,
      "hwnavigationbar": 4204,
      "##utton": 4205,
      "broadcastintent": 4206,
      "scenario": 4207,
      "bartransitions": 4208,
      "pool": 4209,
      "arg1": 4210,
      "##abel": 4211,
      "hwl": 4212,
      "##tic": 4213,
      "##cre": 4214,
      "##iber": 4215,
      "match": 4216,
      "387": 4217,
      "##notificationimpl": 4218,
      "results": 4219,
      "##ensitive": 4220,
      "exist": 4221,
      "hwcustnotificationimpl": 4222,
      "mem": 4223,
      "376": 4224,
      "lo": 4225,
      "816": 4226,
      "##focus": 4227,
      "##statsservice": 4228,
      "##ocallocation": 4229,
      "hwlocallocation": 4230,
      "gain": 4231,
      "##timer": 4232,
      "stats": 4233,
      "348": 4234,
      "##ote": 4235,
      "##activated": 4236,
      "##anim": 4237,
      "##lipping": 4238,
      "##esensitive": 4239,
      "updatedimmed": 4240,
      "isoverlap": 4241,
      "##hidesensitive": 4242,
      "updateclipping": 4243,
      "##activatedhidesensitive": 4244,
      "updatedimmedactivatedhidesensitive": 4245,
      "##f4": 4246,
      "rat": 4247,
      "mms": 4248,
      "charging": 4249,
      "##ulated": 4250,
      "310": 4251,
      "0x7": 4252,
      "1452": 4253,
      "kg": 4254,
      "##native": 4255,
      "##01": 4256,
      "386": 4257,
      "116": 4258,
      "0x1023": 4259,
      "0x1008": 4260,
      "7f": 4261,
      "bg": 4262,
      "##cell": 4263,
      "panelview": 4264,
      "368": 4265,
      "175": 4266,
      "2379": 4267,
      "##isexp": 4268,
      "##isexpanded": 4269,
      "##atchin": 4270,
      "formatchin": 4271,
      "230": 4272,
      "193": 4273,
      "reb": 4274,
      "setisexpanded": 4275,
      "0x1054": 4276,
      "##den": 4277,
      "ont": 4278,
      "369": 4279,
      "userid": 4280,
      "787": 4281,
      "##setup": 4282,
      "age": 4283,
      "subelement": 4284,
      "wfa": 4285,
      "isdefault": 4286,
      "reason": 4287,
      "389": 4288,
      "fore": 4289,
      "ec": 4290,
      "0x103b": 4291,
      "normal": 4292,
      "foreground": 4293,
      "##java": 4294,
      "157": 4295,
      "##full": 4296,
      "388": 4297,
      "0x1021": 4298,
      "118": 4299,
      "##activitynoupdatelocked": 4300,
      "useractivitynoupdatelocked": 4301,
      "##not": 4302,
      "onuseractivity": 4303,
      "0x1024": 4304,
      "015": 4305,
      "104": 4306,
      "lang": 4307,
      "105": 4308,
      "perf": 4309,
      "0x1042": 4310,
      "##ftp": 4311,
      "tftp": 4312,
      "##sdr": 4313,
      "301": 4314,
      "##ipe": 4315,
      "##nam": 4316,
      "networkname": 4317,
      "97": 4318,
      "##apter": 4319,
      "inetwork": 4320,
      "##eventobserver": 4321,
      "##managementeventobserver": 4322,
      "inetworkmanagementeventobserver": 4323,
      "2380": 4324,
      "##attime": 4325,
      "usersetup": 4326,
      "isemergency": 4327,
      "208": 4328,
      "browser": 4329,
      "##9311": 4330,
      "##changemode": 4331,
      "var": 4332,
      "defaults": 4333,
      "156": 4334,
      "##times": 4335,
      "0x103c": 4336,
      "airplanemode": 4337,
      "datasim": 4338,
      "networknam": 4339,
      "##ernetworkchangemode": 4340,
      "carriernetworkchangemode": 4341,
      "networknamedata": 4342,
      "1125": 4343,
      "172": 4344,
      "92": 4345,
      "249": 4346,
      "##ouchevent": 4347,
      "hidden": 4348,
      "##fe": 4349,
      "##reshold": 4350,
      "backend": 4351,
      "137": 4352,
      "##000000": 4353,
      "contentview": 4354,
      "##traffic": 4355,
      "98": 4356,
      "triggerattime": 4357,
      "##ip": 4358,
      "134": 4359,
      "##use": 4360,
      "336": 4361,
      "2130839311": 4362,
      "8c": 4363,
      "packet": 4364,
      "hwlocallocationprovider": 4365,
      "391": 4366,
      "scenarioaction": 4367,
      "523": 4368,
      "cancelnotification": 4369,
      "235": 4370,
      "553": 4371,
      "##ocol": 4372,
      "174": 4373,
      "arg2": 4374,
      "##bad": 4375,
      "pipe": 4376,
      "hwgnss": 4377,
      "10122": 4378,
      "666": 4379,
      "917": 4380,
      "bytes": 4381,
      "81": 4382,
      "latency": 4383,
      "138": 4384,
      "##background": 4385,
      "481": 4386,
      "393": 4387,
      "cmp": 4388,
      "720": 4389,
      "##7450": 4390,
      "392": 4391,
      "qq": 4392,
      "4101": 4393,
      "##rss": 4394,
      "781": 4395,
      "##igin": 4396,
      "hwkeyguard": 4397,
      "2dsdr": 4398,
      "##track": 4399,
      "##brid": 4400,
      "addr": 4401,
      "##interpol": 4402,
      "##interpolator": 4403,
      "dur": 4404,
      "mask": 4405,
      "817": 4406,
      "547": 4407,
      "027450": 4408,
      "02745098": 4409,
      "##bez": 4410,
      "##ulti": 4411,
      "##ierinterpolator": 4412,
      "mcontrolpoint2": 4413,
      "mcontrolpoint1": 4414,
      "cubicbez": 4415,
      "cubicbezierinterpolator": 4416,
      "463": 4417,
      "##sum": 4418,
      "##image": 4419,
      "alert": 4420,
      "##scan": 4421,
      "qcrilmsgtunnelsocket": 4422,
      "magaz": 4423,
      "ether": 4424,
      "ethernet": 4425,
      "listener": 4426,
      "##istic": 4427,
      "devices": 4428,
      "area": 4429,
      "111": 4430,
      "##allpa": 4431,
      "##allpaper": 4432,
      "##daytotal": 4433,
      "webrtt": 4434,
      "binder": 4435,
      "displaypowercontroller": 4436,
      "218": 4437,
      "6c": 4438,
      "139": 4439,
      "170": 4440,
      "88": 4441,
      "hwchrwifirss": 4442,
      "hwchrwifirssig": 4443,
      "loss": 4444,
      "804": 4445,
      "66": 4446,
      "hwchrwifirssigroup": 4447,
      "##err": 4448,
      "313": 4449,
      "0x1049": 4450,
      "394": 4451,
      "simcard": 4452,
      "##sk": 4453,
      "02745098userid": 4454,
      "allimpl": 4455,
      "##etr": 4456,
      "142": 4457,
      "93": 4458,
      "220": 4459,
      "origin": 4460,
      "##adapter": 4461,
      "##limit": 4462,
      "0x00000000": 4463,
      "nativ": 4464,
      "connectivityservice": 4465,
      "254": 4466,
      "783": 4467,
      "##lur": 4468,
      "603": 4469,
      "rt": 4470,
      "806": 4471,
      "##ject": 4472,
      "199": 4473,
      "##ctl": 4474,
      "195": 4475,
      "0xb": 4476,
      "high": 4477,
      "##aker": 4478,
      "106": 4479,
      "wifis": 4480,
      "##stro": 4481,
      "##ong": 4482,
      "##osed": 4483,
      "3a": 4484,
      "6d": 4485,
      "##duration": 4486,
      "307": 4487,
      "90300": 4488,
      "375": 4489,
      "149": 4490,
      "##vers": 4491,
      "##proximity": 4492,
      "cannot": 4493,
      "2568": 4494,
      "4c": 4495,
      "##949": 4496,
      "##slid": 4497,
      "##icontroller": 4498,
      "widget": 4499,
      "##gistered": 4500,
      "wificontroller": 4501,
      "awarelog": 4502,
      "234": 4503,
      "##slider": 4504,
      "userhandle": 4505,
      "port": 4506,
      "det": 4507,
      "motion": 4508,
      "hwgnsslog": 4509,
      "640": 4510,
      "733": 4511,
      "1180": 4512,
      "sin": 4513,
      "simcardmethod": 4514,
      "##fully": 4515,
      "2541": 4516,
      "##pid": 4517,
      "800": 4518,
      "destro": 4519,
      "hiber": 4520,
      "##ict": 4521,
      "##mery": 4522,
      "##ich": 4523,
      "extend": 4524,
      "396": 4525,
      "after": 4526,
      "150": 4527,
      "3671": 4528,
      "wei": 4529,
      "##f0": 4530,
      "parent": 4531,
      "qualcomm": 4532,
      "snr": 4533,
      "gettodaytotal": 4534,
      "##manger": 4535,
      "##viders": 4536,
      "600": 4537,
      "##atam": 4538,
      "completed": 4539,
      "0x2": 4540,
      "bec": 4541,
      "lu": 4542,
      "##vicer": 4543,
      "extn": 4544,
      "132": 4545,
      "231": 4546,
      "ca": 4547,
      "##mb": 4548,
      "95": 4549,
      "one": 4550,
      "811": 4551,
      "190": 4552,
      "##package": 4553,
      "##shade": 4554,
      "gettimer": 4555,
      "updatenotificationshade": 4556,
      "txpkts": 4557,
      "79": 4558,
      "p2p": 4559,
      "309": 4560,
      "successfully": 4561,
      "rxpkts": 4562,
      "txbytes": 4563,
      "##iod": 4564,
      "ear": 4565,
      "hwwifiservicefactoryimpl": 4566,
      "281": 4567,
      "598": 4568,
      "##components": 4569,
      "3399": 4570,
      "hdr": 4571,
      "pay": 4572,
      "during": 4573,
      "280": 4574,
      "##745": 4575,
      "##lights": 4576,
      "##recv": 4577,
      "##nation": 4578,
      "emulated": 4579,
      "244": 4580,
      "hibernation": 4581,
      "500": 4582,
      "detect": 4583,
      "rilj": 4584,
      "##receivercomponents": 4585,
      "collectreceivercomponents": 4586,
      "601": 4587,
      "135": 4588,
      "telephony": 4589,
      "uc": 4590,
      "servicer": 4591,
      "controller": 4592,
      "##weather": 4593,
      "telapsed": 4594,
      "maxelapsed": 4595,
      "bn": 4596,
      "servicerecord": 4597,
      "gettasks": 4598,
      "##lockscreen": 4599,
      "129": 4600,
      "814": 4601,
      "3322": 4602,
      "215": 4603,
      "requesting": 4604,
      "writ": 4605,
      "4e": 4606,
      "autostart": 4607,
      "194": 4608,
      "##good": 4609,
      "308": 4610,
      "##atamgr": 4611,
      "##ource": 4612,
      "222": 4613,
      "##updatamgr": 4614,
      "autostartupdatamgr": 4615,
      "d2": 4616,
      "##acks": 4617,
      "176": 4618,
      "##amenum": 4619,
      "##fc": 4620,
      "##dup": 4621,
      "##isrst": 4622,
      "##rsts": 4623,
      "##ablisrst": 4624,
      "##dupacks": 4625,
      "doze": 4626,
      "##atching": 4627,
      "earli": 4628,
      "##omi": 4629,
      "963": 4630,
      "##ened": 4631,
      "sum": 4632,
      "mproximity": 4633,
      "speaker": 4634,
      "403": 4635,
      "cloud": 4636,
      "lx": 4637,
      "902": 4638,
      "1771": 4639,
      "7194": 4640,
      "183": 4641,
      "##vened": 4642,
      "##intervened": 4643,
      "commun": 4644,
      "weather": 4645,
      "news": 4646,
      "##effect": 4647,
      "repe": 4648,
      "di": 4649,
      "##cr": 4650,
      "284": 4651,
      "incallui": 4652,
      "##agent": 4653,
      "auintervened": 4654,
      "bt1": 4655,
      "dt1": 4656,
      "blux1": 4657,
      "dlux1": 4658,
      "mlx": 4659,
      "mproximitystate": 4660,
      "##bum": 4661,
      "177": 4662,
      "30571": 4663,
      "##kb": 4664,
      "contex": 4665,
      "def": 4666,
      "##af": 4667,
      "7347": 4668,
      "contextimpl": 4669,
      "1991": 4670,
      "##oscen": 4671,
      "datacache": 4672,
      "gettodaytotalsteps": 4673,
      "662": 4674,
      "##eventfrom": 4675,
      "posteventfrom": 4676,
      "posteventfromnative": 4677,
      "000": 4678,
      "closed": 4679,
      "##iv02": 4680,
      "skip": 4681,
      "153": 4682,
      "item": 4683,
      "##common": 4684,
      "209": 4685,
      "##ounce": 4686,
      "533": 4687,
      "locationmanagerservice": 4688,
      "qim": 4689,
      "87": 4690,
      "debounce": 4691,
      "223": 4692,
      "202": 4693,
      "disabled": 4694,
      "##handl": 4695,
      "962": 4696,
      "145": 4697,
      "1598": 4698,
      "apiv02": 4699,
      "748": 4700,
      "earliest": 4701,
      "##validtime": 4702,
      "##summery": 4703,
      "earliestvalidtime": 4704,
      "##uniontype": 4705,
      "##induniontype": 4706,
      "locclienthandl": 4707,
      "locclienthandletype": 4708,
      "985": 4709,
      "216": 4710,
      "31949": 4711,
      "watchthread": 4712,
      "plug": 4713,
      "resource": 4714,
      "##aster": 4715,
      "##ined": 4716,
      "##otation": 4717,
      "natived": 4718,
      "providers": 4719,
      "2a": 4720,
      "##3d": 4721,
      "webview": 4722,
      "316": 4723,
      "10102": 4724,
      "china": 4725,
      "141": 4726,
      "31967": 4727,
      "##addr": 4728,
      "plugged": 4729,
      "126": 4730,
      "143": 4731,
      "##alarm": 4732,
      "notifylistener": 4733,
      "sina": 4734,
      "bound": 4735,
      "##index": 4736,
      "group": 4737,
      "exception": 4738,
      "e6": 4739,
      "2682": 4740,
      "965": 4741,
      "370": 4742,
      "##remo": 4743,
      "##rop": 4744,
      "rebatching": 4745,
      "##absent": 4746,
      "find": 4747,
      "bounds": 4748,
      "enum": 4749,
      "##953": 4750,
      "mname": 4751,
      "##0000000": 4752,
      "76": 4753,
      "155": 4754,
      "broken": 4755,
      "163": 4756,
      "31469": 4757,
      "payload": 4758,
      "5710": 4759,
      "ois": 4760,
      "extendstepdatamanager": 4761,
      "weibo": 4762,
      "##wr": 4763,
      "1971": 4764,
      "profiles": 4765,
      "##bas": 4766,
      "andr": 4767,
      "communication": 4768,
      "233": 4769,
      "mpctl": 4770,
      "283": 4771,
      "136": 4772,
      "1014": 4773,
      "399": 4774,
      "##aturation": 4775,
      "hwpfwapp": 4776,
      "history": 4777,
      "cle": 4778,
      "##schanged": 4779,
      "logdatabas": 4780,
      "logdatabasenc": 4781,
      "got": 4782,
      "mtx": 4783,
      "10105": 4784,
      "master": 4785,
      "766": 4786,
      "398": 4787,
      "iscard": 4788,
      "slotstate": 4789,
      "iscardabsent": 4790,
      "##ateg": 4791,
      "133": 4792,
      "##aud": 4793,
      "espaceservice": 4794,
      "failure": 4795,
      "253": 4796,
      "sockets": 4797,
      "write": 4798,
      "880": 4799,
      "##dk": 4800,
      "239": 4801,
      "397": 4802,
      "phonetype": 4803,
      "internal": 4804,
      "##1b": 4805,
      "##002": 4806,
      "misc": 4807,
      "2912": 4808,
      "##spd": 4809,
      "864": 4810,
      "bitmap": 4811,
      "##ardware": 4812,
      "347": 4813,
      "hwnetwork": 4814,
      "##230": 4815,
      "##ook": 4816,
      "##textview": 4817,
      "289": 4818,
      "780": 4819,
      "slav": 4820,
      "targetclass": 4821,
      "masterlevel": 4822,
      "slavelevel": 4823,
      "612": 4824,
      "##huawei": 4825,
      "msimsubid": 4826,
      "322": 4827,
      "182": 4828,
      "302": 4829,
      "##por": 4830,
      "skipping": 4831,
      "##dataicon": 4832,
      "showdataicon": 4833,
      "notifylistenerhuawei": 4834,
      "290": 4835,
      "found": 4836,
      "same": 4837,
      "qimsservice": 4838,
      "##pped": 4839,
      "##pected": 4840,
      "##create": 4841,
      "##top": 4842,
      "27492": 4843,
      "##fail": 4844,
      "##signalstrength": 4845,
      "updatesignalstrength": 4846,
      "211": 4847,
      "hwintelligent": 4848,
      "nativedaemon": 4849,
      "810": 4850,
      "third": 4851,
      "tinttextview": 4852,
      "##arr": 4853,
      "2898": 4854,
      "##ma": 4855,
      "##hread": 4856,
      "packets": 4857,
      "##plocation": 4858,
      "402": 4859,
      "189": 4860,
      "298": 4861,
      "df": 4862,
      "sent": 4863,
      "hwintelligent3": 4864,
      "period": 4865,
      "##ree": 4866,
      "##strengthschanged": 4867,
      "onsignalstrengthschanged": 4868,
      "levelold": 4869,
      "401": 4870,
      "magazine": 4871,
      "217": 4872,
      "954": 4873,
      "should": 4874,
      "nclogcollectserviceimpl": 4875,
      "227": 4876,
      "listent": 4877,
      "que": 4878,
      "##osocket": 4879,
      "##nex": 4880,
      "listentosocket": 4881,
      "repeat": 4882,
      "communications": 4883,
      "151": 4884,
      "##issuck": 4885,
      "nativedaemonconnector": 4886,
      "184": 4887,
      "aut": 4888,
      "185": 4889,
      "signalclusterview": 4890,
      "##result": 4891,
      "206": 4892,
      "2671": 4893,
      "276": 4894,
      "##bb": 4895,
      "##bind": 4896,
      "3125": 4897,
      "ce": 4898,
      "##aged": 4899,
      "##adata": 4900,
      "##tag": 4901,
      "178": 4902,
      "##6773": 4903,
      "304": 4904,
      "2773": 4905,
      "##contentview": 4906,
      "bc": 4907,
      "notificationcontentview": 4908,
      "437": 4909,
      "169": 4910,
      "560": 4911,
      "customi": 4912,
      "14527": 4913,
      "##managerimpl": 4914,
      "147": 4915,
      "customized": 4916,
      "443": 4917,
      "191": 4918,
      "3365": 4919,
      "mnc": 4920,
      "292": 4921,
      "757": 4922,
      "196": 4923,
      "##ync": 4924,
      "##ermin": 4925,
      "proximit": 4926,
      "620": 4927,
      "1480": 4928,
      "232": 4929,
      "aps": 4930,
      "windowmanger": 4931,
      "##allery": 4932,
      "clear": 4933,
      "1482": 4934,
      "label": 4935,
      "hwbroadcastqueue": 4936,
      "827": 4937,
      "##urface": 4938,
      "812": 4939,
      "##autoscen": 4940,
      "99": 4941,
      "##677344": 4942,
      "3365677344": 4943,
      "1809": 4944,
      "340": 4945,
      "259": 4946,
      "##extend": 4947,
      "##internal": 4948,
      "201": 4949,
      "unex": 4950,
      "3803": 4951,
      "unexpected": 4952,
      "##porter": 4953,
      "550": 4954,
      "##pair": 4955,
      "5g": 4956,
      "transaction": 4957,
      "197": 4958,
      "##low": 4959,
      "591": 4960,
      "allow": 4961,
      "188": 4962,
      "##width": 4963,
      "2364": 4964,
      "374": 4965,
      "usec": 4966,
      "available": 4967,
      "determin": 4968,
      "hsp": 4969,
      "hspap": 4970,
      "828": 4971,
      "##layout": 4972,
      "##emper": 4973,
      "251": 4974,
      "reference": 4975,
      "344": 4976,
      "205": 4977,
      "252": 4978,
      "##gg": 4979,
      "beacon": 4980,
      "wifiservice": 4981,
      "queue": 4982,
      "186": 4983,
      "10112": 4984,
      "ulplocation": 4985,
      "lux": 4986,
      "##seek": 4987,
      "269": 4988,
      "static": 4989,
      "25067": 4990,
      "##child": 4991,
      "667": 4992,
      "##detect": 4993,
      "907": 4994,
      "usage": 4995,
      "404": 4996,
      "utils": 4997,
      "##leep": 4998,
      "notificationgroup": 4999
    }
  }
}