{
  "version": "1.0",
  "truncation": null,
  "padding": null,
  "added_tokens": [
    {
      "id": 0,
      "content": "[UNK]",
      "single_word": false,
      "lstrip": false,
      "rstrip": false,
      "normalized": false,
      "special": true
    },
    {
      "id": 1,
      "content": "[PAD]",
      "single_word": false,
      "lstrip": false,
      "rstrip": false,
      "normalized": false,
      "special": true
    },
    {
      "id": 2,
      "content": "[CLS]",
      "single_word": false,
      "lstrip": false,
      "rstrip": false,
      "normalized": false,
      "special": true
    },
    {
      "id": 3,
      "content": "[SEP]",
      "single_word": false,
      "lstrip": false,
      "rstrip": false,
      "normalized": false,
      "special": true
    },
    {
      "id": 4,
      "content": "[MASK]",
      "single_word": false,
      "lstrip": false,
      "rstrip": false,
      "normalized": false,
      "special": true
    }
  ],
  "normalizer": {
    "type": "BertNormalizer",
    "clean_text": true,
    "handle_chinese_chars": true,
    "strip_accents": null,
    "lowercase": true
  },
  "pre_tokenizer": {
    "type": "BertPreTokenizer"
  },
  "post_processor": null,
  "decoder": null,
  "model": {
    "type": "WordPiece",
    "unk_token": "[UNK]",
    "continuing_subword_prefix": "##",
    "max_input_chars_per_word": 100,
    "vocab": {
      "[UNK]": 0,
      "[PAD]": 1,
      "[CLS]": 2,
      "[SEP]": 3,
      "[MASK]": 4,
      "!": 5,
      "\"": 6,
      "#": 7,
      "$": 8,
      "%": 9,
      "&": 10,
      "'": 11,
      "(": 12,
      ")": 13,
      "*": 14,
      "+": 15,
      ",": 16,
      "-": 17,
      ".": 18,
      "/": 19,
      "0": 20,
      "1": 21,
      "2": 22,
      "3": 23,
      "4": 24,
      "5": 25,
      "6": 26,
      "7": 27,
      "8": 28,
      "9": 29,
      ":": 30,
      ";": 31,
      "<": 32,
      "=": 33,
      ">": 34,
      "?": 35,
      "@": 36,
      "[": 37,
      "\\": 38,
      "]": 39,
      "^": 40,
      "_": 41,
      "`": 42,
      "a": 43,
      "b": 44,
      "c": 45,
      "d": 46,
      "e": 47,
      "f": 48,
      "g": 49,
      "h": 50,
      "i": 51,
      "j": 52,
      "k": 53,
      "l": 54,
      "m": 55,
      "n": 56,
      "o": 57,
      "p": 58,
      "q": 59,
      "r": 60,
      "s": 61,
      "t": 62,
      "u": 63,
      "v": 64,
      "w": 65,
      "x": 66,
      "y": 67,
      "z": 68,
      "{": 69,
      "|": 70,
      "}": 71,
      "~": 72,
      "¡": 73,
      "¤": 74,
      "¥": 75,
      "¦": 76,
      "«": 77,
      "¬": 78,
      "®": 79,
      "°": 80,
      "±": 81,
      "´": 82,
      "µ": 83,
      "·": 84,
      "¹": 85,
      "º": 86,
      "»": 87,
      "¼": 88,
      "½": 89,
      "×": 90,
      "æ": 91,
      "ð": 92,
      "ƭ": 93,
      "ʮ": 94,
      "ˊ": 95,
      "ˎ": 96,
      "ϸ": 97,
      "х": 98,
      "ы": 99,
      "ұ": 100,
      "ҵ": 101,
      "һ": 102,
      "ӡ": 103,
      "ӽ": 104,
      "ߢ": 105,
      "ᄀ": 106,
      "ᄂ": 107,
      "ᄅ": 108,
      "ᄆ": 109,
      "ᄈ": 110,
      "ᄉ": 111,
      "ᄊ": 112,
      "ᄋ": 113,
      "ᄎ": 114,
      "ᄑ": 115,
      "ᅣ": 116,
      "ᅤ": 117,
      "ᅧ": 118,
      "ᅩ": 119,
      "ᅪ": 120,
      "ᅬ": 121,
      "ᅭ": 122,
      "ᅯ": 123,
      "ᅵ": 124,
      "ᆪ": 125,
      "ᆬ": 126,
      "ᆭ": 127,
      "ᆰ": 128,
      "ᆵ": 129,
      "ᆶ": 130,
      "ᆹ": 131,
      "ᆺ": 132,
      "ᆾ": 133,
      "ᇀ": 134,
      "ᇁ": 135,
      "ᇂ": 136,
      "ᏽ": 137,
      "ᝨ": 138,
      "ᠢ": 139,
      "ᱏ": 140,
      "ᵄ": 141,
      "—": 142,
      "‘": 143,
      "“": 144,
      "”": 145,
      "…": 146,
      "′": 147,
      "℃": 148,
      "™": 149,
      "→": 150,
      "↓": 151,
      "─": 152,
      "═": 153,
      "║": 154,
      "╔": 155,
      "╚": 156,
      "╟": 157,
      "▽": 158,
      "●": 159,
      "♈": 160,
      "♉": 161,
      "♊": 162,
      "♋": 163,
      "♌": 164,
      "♍": 165,
      "♎": 166,
      "♏": 167,
      "、": 168,
      "。": 169,
      "《": 170,
      "》": 171,
      "『": 172,
      "』": 173,
      "【": 174,
      "】": 175,
      "い": 176,
      "か": 177,
      "き": 178,
      "く": 179,
      "た": 180,
      "て": 181,
      "と": 182,
      "に": 183,
      "は": 184,
      "ひ": 185,
      "ま": 186,
      "め": 187,
      "ら": 188,
      "る": 189,
      "れ": 190,
      "わ": 191,
      "イ": 192,
      "ェ": 193,
      "ト": 194,
      "ハ": 195,
      "フ": 196,
      "ラ": 197,
      "ン": 198,
      "ー": 199,
      "㊙": 200,
      "㘙": 201,
      "㹠": 202,
      "㿸": 203,
      "䏦": 204,
      "䗖": 205,
      "䙄": 206,
      "䨛": 207,
      "䫎": 208,
      "䮕": 209,
      "䱒": 210,
      "一": 211,
      "丁": 212,
      "七": 213,
      "万": 214,
      "三": 215,
      "上": 216,
      "下": 217,
      "不": 218,
      "与": 219,
      "专": 220,
      "且": 221,
      "世": 222,
      "丘": 223,
      "业": 224,
      "丛": 225,
      "东": 226,
      "丝": 227,
      "丢": 228,
      "两": 229,
      "严": 230,
      "个": 231,
      "中": 232,
      "丰": 233,
      "串": 234,
      "临": 235,
      "丹": 236,
      "为": 237,
      "主": 238,
      "丽": 239,
      "么": 240,
      "义": 241,
      "之": 242,
      "乎": 243,
      "乐": 244,
      "乒": 245,
      "乓": 246,
      "九": 247,
      "也": 248,
      "习": 249,
      "乡": 250,
      "书": 251,
      "买": 252,
      "乱": 253,
      "了": 254,
      "予": 255,
      "争": 256,
      "亊": 257,
      "事": 258,
      "二": 259,
      "于": 260,
      "亏": 261,
      "云": 262,
      "互": 263,
      "五": 264,
      "亚": 265,
      "些": 266,
      "亡": 267,
      "交": 268,
      "亦": 269,
      "产": 270,
      "享": 271,
      "京": 272,
      "亮": 273,
      "亲": 274,
      "人": 275,
      "亿": 276,
      "什": 277,
      "仅": 278,
      "仇": 279,
      "今": 280,
      "介": 281,
      "从": 282,
      "仕": 283,
      "他": 284,
      "付": 285,
      "仙": 286,
      "代": 287,
      "令": 288,
      "以": 289,
      "仪": 290,
      "们": 291,
      "件": 292,
      "价": 293,
      "任": 294,
      "份": 295,
      "企": 296,
      "伍": 297,
      "伏": 298,
      "休": 299,
      "众": 300,
      "优": 301,
      "伙": 302,
      "会": 303,
      "伟": 304,
      "传": 305,
      "伤": 306,
      "伦": 307,
      "伬": 308,
      "伯": 309,
      "伴": 310,
      "伸": 311,
      "伽": 312,
      "但": 313,
      "位": 314,
      "低": 315,
      "住": 316,
      "体": 317,
      "何": 318,
      "佖": 319,
      "余": 320,
      "佛": 321,
      "作": 322,
      "你": 323,
      "佳": 324,
      "佽": 325,
      "使": 326,
      "供": 327,
      "依": 328,
      "侠": 329,
      "侧": 330,
      "侮": 331,
      "侵": 332,
      "便": 333,
      "促": 334,
      "俄": 335,
      "俊": 336,
      "保": 337,
      "信": 338,
      "修": 339,
      "俱": 340,
      "倒": 341,
      "候": 342,
      "借": 343,
      "值": 344,
      "倾": 345,
      "做": 346,
      "停": 347,
      "健": 348,
      "偷": 349,
      "傅": 350,
      "傍": 351,
      "储": 352,
      "傻": 353,
      "像": 354,
      "僵": 355,
      "儿": 356,
      "允": 357,
      "元": 358,
      "充": 359,
      "先": 360,
      "光": 361,
      "克": 362,
      "免": 363,
      "党": 364,
      "入": 365,
      "全": 366,
      "八": 367,
      "公": 368,
      "六": 369,
      "共": 370,
      "关": 371,
      "兴": 372,
      "兵": 373,
      "其": 374,
      "具": 375,
      "典": 376,
      "兹": 377,
      "养": 378,
      "兽": 379,
      "内": 380,
      "册": 381,
      "再": 382,
      "冒": 383,
      "写": 384,
      "军": 385,
      "农": 386,
      "冠": 387,
      "冤": 388,
      "冬": 389,
      "冲": 390,
      "决": 391,
      "冶": 392,
      "冷": 393,
      "净": 394,
      "准": 395,
      "凉": 396,
      "凌": 397,
      "减": 398,
      "几": 399,
      "凡": 400,
      "凯": 401,
      "凶": 402,
      "出": 403,
      "击": 404,
      "刀": 405,
      "分": 406,
      "切": 407,
      "刑": 408,
      "划": 409,
      "列": 410,
      "刘": 411,
      "则": 412,
      "刚": 413,
      "创": 414,
      "初": 415,
      "删": 416,
      "判": 417,
      "利": 418,
      "别": 419,
      "到": 420,
      "制": 421,
      "刷": 422,
      "券": 423,
      "刺": 424,
      "刻": 425,
      "前": 426,
      "剑": 427,
      "剧": 428,
      "剩": 429,
      "副": 430,
      "力": 431,
      "办": 432,
      "功": 433,
      "加": 434,
      "务": 435,
      "动": 436,
      "助": 437,
      "劫": 438,
      "励": 439,
      "劲": 440,
      "势": 441,
      "勇": 442,
      "勋": 443,
      "勿": 444,
      "包": 445,
      "化": 446,
      "北": 447,
      "匙": 448,
      "匪": 449,
      "匹": 450,
      "区": 451,
      "医": 452,
      "匿": 453,
      "十": 454,
      "千": 455,
      "升": 456,
      "午": 457,
      "半": 458,
      "华": 459,
      "协": 460,
      "卓": 461,
      "单": 462,
      "卖": 463,
      "南": 464,
      "博": 465,
      "占": 466,
      "卡": 467,
      "卧": 468,
      "卫": 469,
      "印": 470,
      "即": 471,
      "却": 472,
      "卷": 473,
      "卸": 474,
      "厂": 475,
      "厅": 476,
      "历": 477,
      "厉": 478,
      "压": 479,
      "厕": 480,
      "厚": 481,
      "原": 482,
      "厦": 483,
      "去": 484,
      "县": 485,
      "参": 486,
      "又": 487,
      "及": 488,
      "友": 489,
      "双": 490,
      "反": 491,
      "发": 492,
      "取": 493,
      "受": 494,
      "变": 495,
      "口": 496,
      "古": 497,
      "句": 498,
      "另": 499,
      "只": 500,
      "叫": 501,
      "可": 502,
      "台": 503,
      "史": 504,
      "右": 505,
      "叶": 506,
      "号": 507,
      "司": 508,
      "吃": 509,
      "各": 510,
      "合": 511,
      "吉": 512,
      "吊": 513,
      "同": 514,
      "名": 515,
      "后": 516,
      "吐": 517,
      "向": 518,
      "吗": 519,
      "君": 520,
      "吟": 521,
      "否": 522,
      "吧": 523,
      "含": 524,
      "听": 525,
      "启": 526,
      "吴": 527,
      "吹": 528,
      "吼": 529,
      "呆": 530,
      "告": 531,
      "呒": 532,
      "员": 533,
      "呢": 534,
      "周": 535,
      "呲": 536,
      "味": 537,
      "呼": 538,
      "命": 539,
      "和": 540,
      "咕": 541,
      "咖": 542,
      "咚": 543,
      "咬": 544,
      "咯": 545,
      "咽": 546,
      "哀": 547,
      "品": 548,
      "哈": 549,
      "响": 550,
      "哒": 551,
      "哔": 552,
      "員": 553,
      "哥": 554,
      "哦": 555,
      "哩": 556,
      "哪": 557,
      "哭": 558,
      "哲": 559,
      "哼": 560,
      "哽": 561,
      "唐": 562,
      "唔": 563,
      "唤": 564,
      "售": 565,
      "唯": 566,
      "唱": 567,
      "商": 568,
      "啤": 569,
      "啥": 570,
      "啦": 571,
      "善": 572,
      "喆": 573,
      "喊": 574,
      "喘": 575,
      "喜": 576,
      "喝": 577,
      "喷": 578,
      "嘉": 579,
      "嘞": 580,
      "嘟": 581,
      "嘴": 582,
      "嘿": 583,
      "器": 584,
      "噩": 585,
      "嚣": 586,
      "四": 587,
      "回": 588,
      "因": 589,
      "团": 590,
      "园": 591,
      "围": 592,
      "固": 593,
      "国": 594,
      "图": 595,
      "圆": 596,
      "圈": 597,
      "圞": 598,
      "土": 599,
      "圣": 600,
      "在": 601,
      "地": 602,
      "圳": 603,
      "场": 604,
      "址": 605,
      "均": 606,
      "坊": 607,
      "坎": 608,
      "坏": 609,
      "块": 610,
      "坚": 611,
      "坛": 612,
      "坨": 613,
      "坷": 614,
      "型": 615,
      "城": 616,
      "域": 617,
      "基": 618,
      "堆": 619,
      "堡": 620,
      "塔": 621,
      "塞": 622,
      "填": 623,
      "境": 624,
      "墅": 625,
      "墓": 626,
      "墙": 627,
      "增": 628,
      "墨": 629,
      "士": 630,
      "壮": 631,
      "声": 632,
      "处": 633,
      "备": 634,
      "复": 635,
      "夏": 636,
      "外": 637,
      "夙": 638,
      "多": 639,
      "夜": 640,
      "够": 641,
      "大": 642,
      "天": 643,
      "太": 644,
      "央": 645,
      "失": 646,
      "头": 647,
      "夸": 648,
      "夹": 649,
      "夺": 650,
      "奇": 651,
      "奏": 652,
      "奔": 653,
      "奕": 654,
      "奖": 655,
      "套": 656,
      "奥": 657,
      "女": 658,
      "她": 659,
      "好": 660,
      "如": 661,
      "妃": 662,
      "妇": 663,
      "妈": 664,
      "妍": 665,
      "妖": 666,
      "妮": 667,
      "妹": 668,
      "妾": 669,
      "始": 670,
      "姐": 671,
      "姑": 672,
      "委": 673,
      "威": 674,
      "娘": 675,
      "娜": 676,
      "娱": 677,
      "娶": 678,
      "婉": 679,
      "婷": 680,
      "媒": 681,
      "媚": 682,
      "媛": 683,
      "媥": 684,
      "媳": 685,
      "嫁": 686,
      "嫣": 687,
      "子": 688,
      "字": 689,
      "存": 690,
      "孙": 691,
      "孟": 692,
      "孡": 693,
      "季": 694,
      "学": 695,
      "孩": 696,
      "宁": 697,
      "它": 698,
      "宅": 699,
      "宇": 700,
      "守": 701,
      "安": 702,
      "宋": 703,
      "完": 704,
      "宗": 705,
      "官": 706,
      "宙": 707,
      "定": 708,
      "宜": 709,
      "宝": 710,
      "实": 711,
      "宠": 712,
      "审": 713,
      "客": 714,
      "宣": 715,
      "室": 716,
      "宫": 717,
      "害": 718,
      "家": 719,
      "容": 720,
      "宽": 721,
      "宾": 722,
      "宿": 723,
      "密": 724,
      "富": 725,
      "寓": 726,
      "寝": 727,
      "寸": 728,
      "对": 729,
      "寺": 730,
      "寻": 731,
      "导": 732,
      "封": 733,
      "射": 734,
      "将": 735,
      "尊": 736,
      "導": 737,
      "小": 738,
      "少": 739,
      "尔": 740,
      "尚": 741,
      "尝": 742,
      "尬": 743,
      "就": 744,
      "尴": 745,
      "尸": 746,
      "尼": 747,
      "尽": 748,
      "尾": 749,
      "局": 750,
      "层": 751,
      "屈": 752,
      "屋": 753,
      "屏": 754,
      "展": 755,
      "山": 756,
      "岗": 757,
      "岛": 758,
      "岩": 759,
      "岭": 760,
      "岳": 761,
      "峰": 762,
      "崖": 763,
      "巅": 764,
      "巍": 765,
      "州": 766,
      "巡": 767,
      "工": 768,
      "左": 769,
      "巧": 770,
      "巨": 771,
      "差": 772,
      "己": 773,
      "已": 774,
      "巴": 775,
      "巾": 776,
      "币": 777,
      "市": 778,
      "布": 779,
      "帅": 780,
      "师": 781,
      "希": 782,
      "帐": 783,
      "帝": 784,
      "带": 785,
      "帧": 786,
      "帮": 787,
      "常": 788,
      "幅": 789,
      "幕": 790,
      "平": 791,
      "年": 792,
      "并": 793,
      "幸": 794,
      "幻": 795,
      "广": 796,
      "庄": 797,
      "床": 798,
      "序": 799,
      "库": 800,
      "应": 801,
      "底": 802,
      "店": 803,
      "庙": 804,
      "府": 805,
      "庞": 806,
      "度": 807,
      "座": 808,
      "庭": 809,
      "庶": 810,
      "康": 811,
      "延": 812,
      "廷": 813,
      "建": 814,
      "廿": 815,
      "开": 816,
      "异": 817,
      "弃": 818,
      "式": 819,
      "引": 820,
      "张": 821,
      "弱": 822,
      "弹": 823,
      "强": 824,
      "当": 825,
      "录": 826,
      "彤": 827,
      "彩": 828,
      "彭": 829,
      "影": 830,
      "往": 831,
      "径": 832,
      "待": 833,
      "很": 834,
      "律": 835,
      "徐": 836,
      "得": 837,
      "御": 838,
      "微": 839,
      "徳": 840,
      "德": 841,
      "徽": 842,
      "心": 843,
      "必": 844,
      "忆": 845,
      "忍": 846,
      "志": 847,
      "忘": 848,
      "忙": 849,
      "忝": 850,
      "忧": 851,
      "快": 852,
      "念": 853,
      "怀": 854,
      "态": 855,
      "怎": 856,
      "怒": 857,
      "怜": 858,
      "思": 859,
      "怡": 860,
      "急": 861,
      "性": 862,
      "总": 863,
      "怼": 864,
      "恋": 865,
      "恢": 866,
      "恣": 867,
      "恨": 868,
      "恩": 869,
      "息": 870,
      "悉": 871,
      "悚": 872,
      "悠": 873,
      "患": 874,
      "您": 875,
      "悬": 876,
      "情": 877,
      "惊": 878,
      "惠": 879,
      "惫": 880,
      "想": 881,
      "愉": 882,
      "意": 883,
      "感": 884,
      "愿": 885,
      "慢": 886,
      "慧": 887,
      "憨": 888,
      "懒": 889,
      "懦": 890,
      "戏": 891,
      "成": 892,
      "我": 893,
      "戒": 894,
      "或": 895,
      "战": 896,
      "截": 897,
      "戳": 898,
      "户": 899,
      "房": 900,
      "所": 901,
      "手": 902,
      "才": 903,
      "扑": 904,
      "打": 905,
      "扛": 906,
      "扣": 907,
      "扥": 908,
      "执": 909,
      "扩": 910,
      "扫": 911,
      "扬": 912,
      "扭": 913,
      "扰": 914,
      "扶": 915,
      "扽": 916,
      "找": 917,
      "技": 918,
      "把": 919,
      "抓": 920,
      "投": 921,
      "抗": 922,
      "折": 923,
      "抢": 924,
      "护": 925,
      "报": 926,
      "抵": 927,
      "押": 928,
      "拆": 929,
      "拉": 930,
      "拌": 931,
      "拍": 932,
      "拓": 933,
      "拔": 934,
      "招": 935,
      "拜": 936,
      "拟": 937,
      "拦": 938,
      "拨": 939,
      "择": 940,
      "拭": 941,
      "拳": 942,
      "拵": 943,
      "拿": 944,
      "持": 945,
      "指": 946,
      "按": 947,
      "挖": 948,
      "挚": 949,
      "挥": 950,
      "振": 951,
      "捉": 952,
      "捕": 953,
      "捞": 954,
      "损": 955,
      "换": 956,
      "捣": 957,
      "据": 958,
      "捷": 959,
      "掉": 960,
      "掌": 961,
      "掏": 962,
      "排": 963,
      "接": 964,
      "控": 965,
      "推": 966,
      "掩": 967,
      "措": 968,
      "描": 969,
      "提": 970,
      "插": 971,
      "揣": 972,
      "搜": 973,
      "搞": 974,
      "搬": 975,
      "搭": 976,
      "摇": 977,
      "摩": 978,
      "摸": 979,
      "撇": 980,
      "撕": 981,
      "撩": 982,
      "播": 983,
      "擅": 984,
      "操": 985,
      "擒": 986,
      "擦": 987,
      "支": 988,
      "收": 989,
      "改": 990,
      "攻": 991,
      "放": 992,
      "政": 993,
      "故": 994,
      "效": 995,
      "敌": 996,
      "救": 997,
      "教": 998,
      "敢": 999,
      "敬": 1000,
      "数": 1001,
      "敲": 1002,
      "整": 1003,
      "文": 1004,
      "斗": 1005,
      "料": 1006,
      "斩": 1007,
      "断": 1008,
      "斯": 1009,
      "新": 1010,
      "方": 1011,
      "施": 1012,
      "旅": 1013,
      "旋": 1014,
      "族": 1015,
      "旗": 1016,
      "无": 1017,
      "日": 1018,
      "旧": 1019,
      "早": 1020,
      "时": 1021,
      "旺": 1022,
      "昌": 1023,
      "明": 1024,
      "易": 1025,
      "星": 1026,
      "春": 1027,
      "昨": 1028,
      "是": 1029,
      "显": 1030,
      "晋": 1031,
      "晓": 1032,
      "晖": 1033,
      "晚": 1034,
      "晟": 1035,
      "晨": 1036,
      "普": 1037,
      "景": 1038,
      "晰": 1039,
      "晴": 1040,
      "晶": 1041,
      "智": 1042,
      "暂": 1043,
      "暖": 1044,
      "暗": 1045,
      "暨": 1046,
      "暴": 1047,
      "曲": 1048,
      "更": 1049,
      "曹": 1050,
      "曾": 1051,
      "替": 1052,
      "最": 1053,
      "會": 1054,
      "月": 1055,
      "有": 1056,
      "朋": 1057,
      "服": 1058,
      "朗": 1059,
      "望": 1060,
      "朝": 1061,
      "期": 1062,
      "朧": 1063,
      "木": 1064,
      "未": 1065,
      "本": 1066,
      "术": 1067,
      "朱": 1068,
      "朵": 1069,
      "朹": 1070,
      "机": 1071,
      "杀": 1072,
      "权": 1073,
      "李": 1074,
      "材": 1075,
      "村": 1076,
      "束": 1077,
      "条": 1078,
      "来": 1079,
      "杨": 1080,
      "杰": 1081,
      "松": 1082,
      "板": 1083,
      "极": 1084,
      "构": 1085,
      "析": 1086,
      "林": 1087,
      "果": 1088,
      "架": 1089,
      "染": 1090,
      "柚": 1091,
      "查": 1092,
      "柴": 1093,
      "标": 1094,
      "树": 1095,
      "校": 1096,
      "样": 1097,
      "核": 1098,
      "根": 1099,
      "格": 1100,
      "桂": 1101,
      "桃": 1102,
      "框": 1103,
      "案": 1104,
      "桌": 1105,
      "档": 1106,
      "桦": 1107,
      "桩": 1108,
      "梁": 1109,
      "梦": 1110,
      "检": 1111,
      "棒": 1112,
      "森": 1113,
      "植": 1114,
      "楼": 1115,
      "概": 1116,
      "槛": 1117,
      "槽": 1118,
      "樂": 1119,
      "模": 1120,
      "横": 1121,
      "橙": 1122,
      "次": 1123,
      "欢": 1124,
      "欣": 1125,
      "欧": 1126,
      "欺": 1127,
      "款": 1128,
      "歉": 1129,
      "歌": 1130,
      "止": 1131,
      "正": 1132,
      "此": 1133,
      "步": 1134,
      "武": 1135,
      "死": 1136,
      "残": 1137,
      "段": 1138,
      "殿": 1139,
      "母": 1140,
      "每": 1141,
      "毒": 1142,
      "比": 1143,
      "毕": 1144,
      "毛": 1145,
      "毫": 1146,
      "氏": 1147,
      "民": 1148,
      "气": 1149,
      "水": 1150,
      "永": 1151,
      "汁": 1152,
      "求": 1153,
      "汇": 1154,
      "汉": 1155,
      "汗": 1156,
      "江": 1157,
      "池": 1158,
      "污": 1159,
      "汽": 1160,
      "沃": 1161,
      "沈": 1162,
      "沉": 1163,
      "沐": 1164,
      "沟": 1165,
      "没": 1166,
      "沪": 1167,
      "河": 1168,
      "油": 1169,
      "治": 1170,
      "泉": 1171,
      "泓": 1172,
      "法": 1173,
      "泡": 1174,
      "波": 1175,
      "注": 1176,
      "泪": 1177,
      "泯": 1178,
      "泰": 1179,
      "泳": 1180,
      "泻": 1181,
      "泼": 1182,
      "泽": 1183,
      "津": 1184,
      "洪": 1185,
      "洱": 1186,
      "活": 1187,
      "洼": 1188,
      "派": 1189,
      "流": 1190,
      "浅": 1191,
      "测": 1192,
      "浏": 1193,
      "浙": 1194,
      "浚": 1195,
      "浦": 1196,
      "浪": 1197,
      "浮": 1198,
      "浴": 1199,
      "海": 1200,
      "涂": 1201,
      "消": 1202,
      "润": 1203,
      "液": 1204,
      "淀": 1205,
      "淘": 1206,
      "淮": 1207,
      "深": 1208,
      "混": 1209,
      "添": 1210,
      "渄": 1211,
      "清": 1212,
      "渍": 1213,
      "渔": 1214,
      "渠": 1215,
      "渣": 1216,
      "温": 1217,
      "港": 1218,
      "游": 1219,
      "湖": 1220,
      "湘": 1221,
      "源": 1222,
      "溪": 1223,
      "滑": 1224,
      "滚": 1225,
      "满": 1226,
      "滤": 1227,
      "滨": 1228,
      "滴": 1229,
      "演": 1230,
      "漫": 1231,
      "潮": 1232,
      "澳": 1233,
      "激": 1234,
      "瀚": 1235,
      "火": 1236,
      "灬": 1237,
      "灯": 1238,
      "灰": 1239,
      "灵": 1240,
      "灾": 1241,
      "炒": 1242,
      "炮": 1243,
      "炸": 1244,
      "点": 1245,
      "烟": 1246,
      "烤": 1247,
      "烦": 1248,
      "烧": 1249,
      "热": 1250,
      "烹": 1251,
      "烽": 1252,
      "焦": 1253,
      "然": 1254,
      "煌": 1255,
      "照": 1256,
      "煮": 1257,
      "熄": 1258,
      "熟": 1259,
      "熬": 1260,
      "熾": 1261,
      "燃": 1262,
      "燕": 1263,
      "爆": 1264,
      "爱": 1265,
      "父": 1266,
      "爸": 1267,
      "爽": 1268,
      "片": 1269,
      "版": 1270,
      "牌": 1271,
      "牙": 1272,
      "牛": 1273,
      "物": 1274,
      "特": 1275,
      "状": 1276,
      "狂": 1277,
      "狗": 1278,
      "独": 1279,
      "狼": 1280,
      "猎": 1281,
      "猪": 1282,
      "猫": 1283,
      "率": 1284,
      "玉": 1285,
      "王": 1286,
      "玛": 1287,
      "玥": 1288,
      "玩": 1289,
      "环": 1290,
      "现": 1291,
      "玻": 1292,
      "珊": 1293,
      "珠": 1294,
      "球": 1295,
      "理": 1296,
      "琳": 1297,
      "琼": 1298,
      "瑚": 1299,
      "瑜": 1300,
      "瑞": 1301,
      "瓜": 1302,
      "瓦": 1303,
      "生": 1304,
      "用": 1305,
      "田": 1306,
      "由": 1307,
      "甲": 1308,
      "申": 1309,
      "电": 1310,
      "男": 1311,
      "画": 1312,
      "畅": 1313,
      "界": 1314,
      "留": 1315,
      "略": 1316,
      "疆": 1317,
      "疑": 1318,
      "病": 1319,
      "症": 1320,
      "痒": 1321,
      "痛": 1322,
      "登": 1323,
      "白": 1324,
      "百": 1325,
      "的": 1326,
      "皇": 1327,
      "皲": 1328,
      "监": 1329,
      "盒": 1330,
      "盖": 1331,
      "盗": 1332,
      "盘": 1333,
      "盛": 1334,
      "盟": 1335,
      "目": 1336,
      "直": 1337,
      "相": 1338,
      "省": 1339,
      "看": 1340,
      "真": 1341,
      "眥": 1342,
      "眼": 1343,
      "眽": 1344,
      "着": 1345,
      "睡": 1346,
      "瞅": 1347,
      "瞬": 1348,
      "知": 1349,
      "短": 1350,
      "石": 1351,
      "码": 1352,
      "研": 1353,
      "砖": 1354,
      "破": 1355,
      "确": 1356,
      "碌": 1357,
      "碎": 1358,
      "碳": 1359,
      "磁": 1360,
      "磨": 1361,
      "礁": 1362,
      "示": 1363,
      "礼": 1364,
      "社": 1365,
      "祀": 1366,
      "祁": 1367,
      "神": 1368,
      "票": 1369,
      "祭": 1370,
      "祸": 1371,
      "禁": 1372,
      "禌": 1373,
      "福": 1374,
      "禹": 1375,
      "离": 1376,
      "秀": 1377,
      "私": 1378,
      "秋": 1379,
      "种": 1380,
      "科": 1381,
      "秒": 1382,
      "秘": 1383,
      "租": 1384,
      "秦": 1385,
      "积": 1386,
      "称": 1387,
      "移": 1388,
      "程": 1389,
      "稍": 1390,
      "稸": 1391,
      "稻": 1392,
      "稽": 1393,
      "穴": 1394,
      "究": 1395,
      "穷": 1396,
      "穹": 1397,
      "空": 1398,
      "突": 1399,
      "窄": 1400,
      "窑": 1401,
      "窝": 1402,
      "立": 1403,
      "站": 1404,
      "竞": 1405,
      "竟": 1406,
      "章": 1407,
      "童": 1408,
      "端": 1409,
      "笑": 1410,
      "笔": 1411,
      "符": 1412,
      "第": 1413,
      "等": 1414,
      "筒": 1415,
      "策": 1416,
      "签": 1417,
      "简": 1418,
      "算": 1419,
      "管": 1420,
      "箱": 1421,
      "篮": 1422,
      "簪": 1423,
      "米": 1424,
      "类": 1425,
      "粉": 1426,
      "粥": 1427,
      "粪": 1428,
      "粮": 1429,
      "精": 1430,
      "粿": 1431,
      "系": 1432,
      "紟": 1433,
      "素": 1434,
      "索": 1435,
      "紧": 1436,
      "紫": 1437,
      "終": 1438,
      "繁": 1439,
      "纈": 1440,
      "纐": 1441,
      "纠": 1442,
      "红": 1443,
      "约": 1444,
      "级": 1445,
      "纪": 1446,
      "纯": 1447,
      "纲": 1448,
      "纳": 1449,
      "纵": 1450,
      "纷": 1451,
      "纹": 1452,
      "线": 1453,
      "练": 1454,
      "组": 1455,
      "细": 1456,
      "终": 1457,
      "绎": 1458,
      "经": 1459,
      "绑": 1460,
      "结": 1461,
      "给": 1462,
      "络": 1463,
      "绝": 1464,
      "统": 1465,
      "绣": 1466,
      "继": 1467,
      "绩": 1468,
      "续": 1469,
      "绳": 1470,
      "维": 1471,
      "绿": 1472,
      "缇": 1473,
      "缓": 1474,
      "编": 1475,
      "缘": 1476,
      "缺": 1477,
      "网": 1478,
      "罔": 1479,
      "罗": 1480,
      "罪": 1481,
      "置": 1482,
      "羊": 1483,
      "美": 1484,
      "羞": 1485,
      "群": 1486,
      "羽": 1487,
      "翁": 1488,
      "翠": 1489,
      "翡": 1490,
      "翻": 1491,
      "耀": 1492,
      "老": 1493,
      "考": 1494,
      "者": 1495,
      "而": 1496,
      "耗": 1497,
      "耳": 1498,
      "耽": 1499,
      "聊": 1500,
      "职": 1501,
      "联": 1502,
      "聚": 1503,
      "聤": 1504,
      "股": 1505,
      "肤": 1506,
      "育": 1507,
      "背": 1508,
      "胜": 1509,
      "胡": 1510,
      "胸": 1511,
      "能": 1512,
      "脑": 1513,
      "脱": 1514,
      "腾": 1515,
      "膛": 1516,
      "臣": 1517,
      "自": 1518,
      "至": 1519,
      "致": 1520,
      "舍": 1521,
      "舞": 1522,
      "航": 1523,
      "良": 1524,
      "艰": 1525,
      "色": 1526,
      "艺": 1527,
      "艾": 1528,
      "节": 1529,
      "芒": 1530,
      "芜": 1531,
      "芦": 1532,
      "芯": 1533,
      "花": 1534,
      "芳": 1535,
      "芷": 1536,
      "苍": 1537,
      "苏": 1538,
      "苑": 1539,
      "苟": 1540,
      "若": 1541,
      "苦": 1542,
      "英": 1543,
      "茂": 1544,
      "范": 1545,
      "茄": 1546,
      "茜": 1547,
      "茨": 1548,
      "茹": 1549,
      "草": 1550,
      "荐": 1551,
      "荒": 1552,
      "荟": 1553,
      "荣": 1554,
      "药": 1555,
      "莞": 1556,
      "莱": 1557,
      "莲": 1558,
      "获": 1559,
      "菇": 1560,
      "菜": 1561,
      "萄": 1562,
      "萌": 1563,
      "营": 1564,
      "萧": 1565,
      "萨": 1566,
      "落": 1567,
      "葛": 1568,
      "葡": 1569,
      "葩": 1570,
      "葫": 1571,
      "蒋": 1572,
      "蒙": 1573,
      "蒸": 1574,
      "蓓": 1575,
      "蓝": 1576,
      "蔚": 1577,
      "蔽": 1578,
      "薄": 1579,
      "薦": 1580,
      "藏": 1581,
      "蘑": 1582,
      "蘭": 1583,
      "虎": 1584,
      "虹": 1585,
      "蛇": 1586,
      "蛋": 1587,
      "蛾": 1588,
      "蜗": 1589,
      "融": 1590,
      "血": 1591,
      "行": 1592,
      "街": 1593,
      "衞": 1594,
      "衡": 1595,
      "衣": 1596,
      "表": 1597,
      "衰": 1598,
      "袁": 1599,
      "被": 1600,
      "袭": 1601,
      "裂": 1602,
      "装": 1603,
      "裙": 1604,
      "西": 1605,
      "要": 1606,
      "覆": 1607,
      "见": 1608,
      "观": 1609,
      "规": 1610,
      "视": 1611,
      "览": 1612,
      "觉": 1613,
      "解": 1614,
      "言": 1615,
      "警": 1616,
      "计": 1617,
      "订": 1618,
      "认": 1619,
      "让": 1620,
      "训": 1621,
      "议": 1622,
      "讯": 1623,
      "记": 1624,
      "讲": 1625,
      "讶": 1626,
      "许": 1627,
      "论": 1628,
      "设": 1629,
      "访": 1630,
      "证": 1631,
      "评": 1632,
      "识": 1633,
      "诉": 1634,
      "词": 1635,
      "试": 1636,
      "诗": 1637,
      "话": 1638,
      "诞": 1639,
      "诡": 1640,
      "询": 1641,
      "该": 1642,
      "详": 1643,
      "语": 1644,
      "误": 1645,
      "说": 1646,
      "请": 1647,
      "读": 1648,
      "课": 1649,
      "谁": 1650,
      "调": 1651,
      "谅": 1652,
      "谋": 1653,
      "谢": 1654,
      "谣": 1655,
      "谭": 1656,
      "谱": 1657,
      "谷": 1658,
      "豆": 1659,
      "象": 1660,
      "豪": 1661,
      "豸": 1662,
      "贝": 1663,
      "负": 1664,
      "财": 1665,
      "责": 1666,
      "贤": 1667,
      "败": 1668,
      "账": 1669,
      "货": 1670,
      "质": 1671,
      "贪": 1672,
      "购": 1673,
      "贴": 1674,
      "贷": 1675,
      "费": 1676,
      "贼": 1677,
      "赁": 1678,
      "资": 1679,
      "赋": 1680,
      "赏": 1681,
      "赛": 1682,
      "赞": 1683,
      "赢": 1684,
      "走": 1685,
      "赵": 1686,
      "赶": 1687,
      "起": 1688,
      "超": 1689,
      "越": 1690,
      "足": 1691,
      "跁": 1692,
      "跋": 1693,
      "跑": 1694,
      "跟": 1695,
      "路": 1696,
      "跳": 1697,
      "蹈": 1698,
      "蹬": 1699,
      "蹭": 1700,
      "身": 1701,
      "车": 1702,
      "轩": 1703,
      "转": 1704,
      "软": 1705,
      "轰": 1706,
      "轻": 1707,
      "载": 1708,
      "较": 1709,
      "辅": 1710,
      "辆": 1711,
      "辈": 1712,
      "辉": 1713,
      "辑": 1714,
      "输": 1715,
      "辖": 1716,
      "辣": 1717,
      "辨": 1718,
      "辱": 1719,
      "边": 1720,
      "达": 1721,
      "迅": 1722,
      "过": 1723,
      "迎": 1724,
      "运": 1725,
      "返": 1726,
      "还": 1727,
      "这": 1728,
      "进": 1729,
      "远": 1730,
      "违": 1731,
      "连": 1732,
      "迡": 1733,
      "迪": 1734,
      "迫": 1735,
      "述": 1736,
      "迷": 1737,
      "迹": 1738,
      "追": 1739,
      "迿": 1740,
      "退": 1741,
      "送": 1742,
      "适": 1743,
      "逃": 1744,
      "逆": 1745,
      "选": 1746,
      "逐": 1747,
      "递": 1748,
      "途": 1749,
      "通": 1750,
      "逛": 1751,
      "速": 1752,
      "造": 1753,
      "逻": 1754,
      "逼": 1755,
      "遇": 1756,
      "道": 1757,
      "遗": 1758,
      "避": 1759,
      "邀": 1760,
      "那": 1761,
      "邮": 1762,
      "邹": 1763,
      "郎": 1764,
      "部": 1765,
      "郭": 1766,
      "都": 1767,
      "鄙": 1768,
      "配": 1769,
      "酒": 1770,
      "酷": 1771,
      "醉": 1772,
      "醒": 1773,
      "采": 1774,
      "释": 1775,
      "里": 1776,
      "重": 1777,
      "量": 1778,
      "金": 1779,
      "鑫": 1780,
      "针": 1781,
      "钓": 1782,
      "钟": 1783,
      "钥": 1784,
      "钮": 1785,
      "钱": 1786,
      "钻": 1787,
      "铁": 1788,
      "铃": 1789,
      "银": 1790,
      "链": 1791,
      "销": 1792,
      "锁": 1793,
      "锂": 1794,
      "锅": 1795,
      "错": 1796,
      "锡": 1797,
      "锦": 1798,
      "键": 1799,
      "镇": 1800,
      "镜": 1801,
      "长": 1802,
      "間": 1803,
      "閾": 1804,
      "门": 1805,
      "闪": 1806,
      "闭": 1807,
      "问": 1808,
      "闯": 1809,
      "闲": 1810,
      "间": 1811,
      "闵": 1812,
      "闹": 1813,
      "闻": 1814,
      "阀": 1815,
      "阅": 1816,
      "阜": 1817,
      "队": 1818,
      "防": 1819,
      "阳": 1820,
      "阴": 1821,
      "阵": 1822,
      "阿": 1823,
      "际": 1824,
      "陆": 1825,
      "陈": 1826,
      "陋": 1827,
      "降": 1828,
      "限": 1829,
      "陕": 1830,
      "院": 1831,
      "除": 1832,
      "险": 1833,
      "陪": 1834,
      "陲": 1835,
      "陷": 1836,
      "隆": 1837,
      "随": 1838,
      "隐": 1839,
      "障": 1840,
      "难": 1841,
      "雁": 1842,
      "雄": 1843,
      "雅": 1844,
      "集": 1845,
      "雨": 1846,
      "雪": 1847,
      "零": 1848,
      "雷": 1849,
      "雾": 1850,
      "需": 1851,
      "震": 1852,
      "霖": 1853,
      "露": 1854,
      "霸": 1855,
      "霾": 1856,
      "青": 1857,
      "靓": 1858,
      "静": 1859,
      "非": 1860,
      "面": 1861,
      "革": 1862,
      "鞋": 1863,
      "音": 1864,
      "页": 1865,
      "顶": 1866,
      "项": 1867,
      "顺": 1868,
      "须": 1869,
      "顾": 1870,
      "顿": 1871,
      "颁": 1872,
      "预": 1873,
      "领": 1874,
      "颐": 1875,
      "频": 1876,
      "题": 1877,
      "颜": 1878,
      "额": 1879,
      "风": 1880,
      "飘": 1881,
      "飚": 1882,
      "飛": 1883,
      "飞": 1884,
      "食": 1885,
      "餐": 1886,
      "饪": 1887,
      "饭": 1888,
      "饰": 1889,
      "馆": 1890,
      "馈": 1891,
      "馏": 1892,
      "首": 1893,
      "香": 1894,
      "马": 1895,
      "驶": 1896,
      "驾": 1897,
      "骂": 1898,
      "骄": 1899,
      "验": 1900,
      "骚": 1901,
      "骤": 1902,
      "骨": 1903,
      "髎": 1904,
      "高": 1905,
      "鬼": 1906,
      "魁": 1907,
      "魂": 1908,
      "魅": 1909,
      "魏": 1910,
      "魔": 1911,
      "魢": 1912,
      "鱼": 1913,
      "鲜": 1914,
      "鳖": 1915,
      "鸡": 1916,
      "鸨": 1917,
      "鸿": 1918,
      "鹅": 1919,
      "鹏": 1920,
      "鹿": 1921,
      "麦": 1922,
      "麻": 1923,
      "黄": 1924,
      "黎": 1925,
      "黏": 1926,
      "黑": 1927,
      "默": 1928,
      "鼓": 1929,
      "龙": 1930,
      "龚": 1931,
      "ﯨ": 1932,
      "！": 1933,
      "（": 1934,
      "）": 1935,
      "，": 1936,
      "／": 1937,
      "：": 1938,
      "；": 1939,
      "？": 1940,
      "＼": 1941,
      "ｑ": 1942,
      "～": 1943,
      "🐍": 1944,
      "💕": 1945,
      "💰": 1946,
      "💸": 1947,
      "😏": 1948,
      "🙋": 1949,
      "##5": 1950,
      "##b": 1951,
      "##0": 1952,
      "##4": 1953,
      "##e": 1954,
      "##8": 1955,
      "##3": 1956,
      "##2": 1957,
      "##1": 1958,
      "##7": 1959,
      "##9": 1960,
      "##6": 1961,
      "##r": 1962,
      "##u": 1963,
      "##c": 1964,
      "##i": 1965,
      "##w": 1966,
      "##g": 1967,
      "##n": 1968,
      "##v": 1969,
      "##j": 1970,
      "##x": 1971,
      "##f": 1972,
      "##a": 1973,
      "##y": 1974,
      "##d": 1975,
      "##s": 1976,
      "##p": 1977,
      "##m": 1978,
      "##l": 1979,
      "##t": 1980,
      "##o": 1981,
      "##h": 1982,
      "##k": 1983,
      "##z": 1984,
      "##q": 1985,
      "##わ": 1986,
      "##れ": 1987,
      "##て": 1988,
      "##æ": 1989,
      "##¬": 1990,
      "##´": 1991,
      "##ӡ": 1992,
      "##×": 1993,
      "##♉": 1994,
      "##♏": 1995,
      "##♎": 1996,
      "##♍": 1997,
      "##♌": 1998,
      "##♋": 1999,
      "##♊": 2000,
      "##●": 2001,
      "##ϸ": 2002,
      "##─": 2003,
      "##º": 2004,
      "##═": 2005,
      "##ᄅ": 2006,
      "##ᅵ": 2007,
      "##ᇂ": 2008,
      "##ߢ": 2009,
      "##®": 2010,
      "##ӽ": 2011,
      "##ᄉ": 2012,
      "##ᅭ": 2013,
      "##ᆶ": 2014,
      "##¥": 2015,
      "##ᄎ": 2016,
      "##ᆺ": 2017,
      "##た": 2018,
      "##い": 2019,
      "##ᆾ": 2020,
      "##ʮ": 2021,
      "##һ": 2022,
      "##µ": 2023,
      "##ᅤ": 2024,
      "##ᆬ": 2025,
      "##¹": 2026,
      "##ᅪ": 2027,
      "##ᆵ": 2028,
      "##😏": 2029,
      "##と": 2030,
      "##ᅯ": 2031,
      "##ᇁ": 2032,
      "##ェ": 2033,
      "##イ": 2034,
      "##ラ": 2035,
      "##ン": 2036,
      "##ð": 2037,
      "##ᅩ": 2038,
      "##ᆪ": 2039,
      "##ᄀ": 2040,
      "##ᅧ": 2041,
      "##ᆭ": 2042,
      "##ﯨ": 2043,
      "##ᇀ": 2044,
      "##℃": 2045,
      "##¤": 2046,
      "##く": 2047,
      "##ー": 2048,
      "##ト": 2049,
      "##ま": 2050,
      "##は": 2051,
      "##ᅣ": 2052,
      "##ᆰ": 2053,
      "##ᅬ": 2054,
      "##ᆹ": 2055,
      "##±": 2056,
      "##¦": 2057,
      "##°": 2058,
      "##er": 2059,
      "12": 2060,
      "##nt": 2061,
      "##at": 2062,
      "11": 2063,
      "17": 2064,
      "##an": 2065,
      "##ic": 2066,
      "##on": 2067,
      "##ro": 2068,
      "##et": 2069,
      "##re": 2070,
      "##al": 2071,
      "##st": 2072,
      "##in": 2073,
      "##id": 2074,
      "##en": 2075,
      "##ag": 2076,
      "##ed": 2077,
      "##ti": 2078,
      "##ec": 2079,
      "##00": 2080,
      "##or": 2081,
      "18": 2082,
      "co": 2083,
      "19": 2084,
      "##pl": 2085,
      "##man": 2086,
      "20": 2087,
      "##it": 2088,
      "##manag": 2089,
      "30": 2090,
      "##ss": 2091,
      "##manager": 2092,
      "29": 2093,
      "##ent": 2094,
      "##ar": 2095,
      "##se": 2096,
      "##ac": 2097,
      "##le": 2098,
      "##nd": 2099,
      "su": 2100,
      "wp": 2101,
      "##ice": 2102,
      "hw": 2103,
      "##vice": 2104,
      "25": 2105,
      "174": 2106,
      "##ser": 2107,
      "32": 2108,
      "##ing": 2109,
      "##ei": 2110,
      "##ue": 2111,
      "##ad": 2112,
      "##84": 2113,
      "##pe": 2114,
      "08": 2115,
      "##de": 2116,
      "21": 2117,
      "10": 2118,
      "07": 2119,
      "##oc": 2120,
      "##ate": 2121,
      "##ut": 2122,
      "com": 2123,
      "33": 2124,
      "##ppl": 2125,
      "##ll": 2126,
      "26": 2127,
      "fal": 2128,
      "false": 2129,
      "st": 2130,
      "##fi": 2131,
      "tr": 2132,
      "##pplic": 2133,
      "##ant": 2134,
      "28": 2135,
      "0x": 2136,
      "wpa": 2137,
      "##pplicant": 2138,
      "supplicant": 2139,
      "09": 2140,
      "2984": 2141,
      "22": 2142,
      "##ne": 2143,
      "and": 2144,
      "##em": 2145,
      "23": 2146,
      "##62": 2147,
      "ac": 2148,
      "##roid": 2149,
      "android": 2150,
      "##ow": 2151,
      "##ype": 2152,
      "##ity": 2153,
      "31": 2154,
      "##tiv": 2155,
      "true": 2156,
      "##am": 2157,
      "##ch": 2158,
      "14": 2159,
      "##is": 2160,
      "06": 2161,
      "##tr": 2162,
      "##service": 2163,
      "re": 2164,
      "##ock": 2165,
      "00": 2166,
      "##im": 2167,
      "##el": 2168,
      "len": 2169,
      "##vent": 2170,
      "at": 2171,
      "##47": 2172,
      "13": 2173,
      "##81": 2174,
      "##ion": 2175,
      "##ifi": 2176,
      "27": 2177,
      "##52": 2178,
      "##tivity": 2179,
      "##ob": 2180,
      "##co": 2181,
      "16": 2182,
      "##ig": 2183,
      "##ver": 2184,
      "##tion": 2185,
      "01": 2186,
      "get": 2187,
      "##60": 2188,
      "##as": 2189,
      "##atu": 2190,
      "1743": 2191,
      "no": 2192,
      "##ect": 2193,
      "##10": 2194,
      "15": 2195,
      "qc": 2196,
      "##pp": 2197,
      "24": 2198,
      "##ol": 2199,
      "is": 2200,
      "##ab": 2201,
      "##end": 2202,
      "##ation": 2203,
      "##ile": 2204,
      "type": 2205,
      "ch": 2206,
      "##ce": 2207,
      "rec": 2208,
      "net": 2209,
      "core": 2210,
      "##nej": 2211,
      "qcnej": 2212,
      "3262": 2213,
      "##sb": 2214,
      "##av": 2215,
      "##72": 2216,
      "##ode": 2217,
      "##um": 2218,
      "##nter": 2219,
      "##ast": 2220,
      "##ork": 2221,
      "##30": 2222,
      "3381": 2223,
      "pro": 2224,
      "##ur": 2225,
      "##hon": 2226,
      "##95": 2227,
      "##work": 2228,
      "1760": 2229,
      "wps": 2230,
      "recei": 2231,
      "##80": 2232,
      "##ull": 2233,
      "##ex": 2234,
      "##ib": 2235,
      "##onn": 2236,
      "##pro": 2237,
      "100": 2238,
      "##ata": 2239,
      "##rec": 2240,
      "##ava": 2241,
      "##82": 2242,
      "in": 2243,
      "java": 2244,
      "##ff": 2245,
      "##ower": 2246,
      "##22": 2247,
      "null": 2248,
      "attr": 2249,
      "##state": 2250,
      "##all": 2251,
      "usb": 2252,
      "##fac": 2253,
      "05": 2254,
      "to": 2255,
      "0x10": 2256,
      "##device": 2257,
      "##fo": 2258,
      "##th": 2259,
      "35": 2260,
      "##ntro": 2261,
      "##aw": 2262,
      "wifi": 2263,
      "##tif": 2264,
      "03": 2265,
      "##managerservice": 2266,
      "59": 2267,
      "##ign": 2268,
      "receiv": 2269,
      "on": 2270,
      "ms": 2271,
      "##ang": 2272,
      "52": 2273,
      "##devicemanager": 2274,
      "usbdevicemanager": 2275,
      "04": 2276,
      "activity": 2277,
      "02": 2278,
      "39": 2279,
      "43": 2280,
      "55": 2281,
      "send": 2282,
      "##adc": 2283,
      "##il": 2284,
      "phon": 2285,
      "##io": 2286,
      "##roadc": 2287,
      "##roadcast": 2288,
      "2852": 2289,
      "power": 2290,
      "##ew": 2291,
      "##ntent": 2292,
      "sock": 2293,
      "##uaw": 2294,
      "##oo": 2295,
      "##uawei": 2296,
      "##ignal": 2297,
      "51": 2298,
      "##53": 2299,
      "##mar": 2300,
      "37": 2301,
      "##per": 2302,
      "##ul": 2303,
      "##la": 2304,
      "38": 2305,
      "1747": 2306,
      "##pd": 2307,
      "44": 2308,
      "40": 2309,
      "##66": 2310,
      "##es": 2311,
      "huawei": 2312,
      "57": 2313,
      "##36": 2314,
      "##og": 2315,
      "45": 2316,
      "##put": 2317,
      "wa": 2318,
      "##yst": 2319,
      "50": 2320,
      "41": 2321,
      "##onnect": 2322,
      "34": 2323,
      "##ack": 2324,
      "36": 2325,
      "##event": 2326,
      "##and": 2327,
      "network": 2328,
      "file": 2329,
      "received": 2330,
      "##ystem": 2331,
      "##33": 2332,
      "##cess": 2333,
      "##olic": 2334,
      "49": 2335,
      "1748": 2336,
      "##un": 2337,
      "##ller": 2338,
      "##ev": 2339,
      "##08": 2340,
      "fl": 2341,
      "58": 2342,
      "##16": 2343,
      "##contro": 2344,
      "dis": 2345,
      "42": 2346,
      "1772": 2347,
      "46": 2348,
      "56": 2349,
      "48": 2350,
      "##face": 2351,
      "action": 2352,
      "54": 2353,
      "##atus": 2354,
      "53": 2355,
      "##enab": 2356,
      "##99": 2357,
      "event": 2358,
      "set": 2359,
      "read": 2360,
      "lib": 2361,
      "boo": 2362,
      "##48": 2363,
      "notif": 2364,
      "##signal": 2365,
      "##ud": 2366,
      "##os": 2367,
      "##11": 2368,
      "broadcast": 2369,
      "1795": 2370,
      "##app": 2371,
      "2647": 2372,
      "##mary": 2373,
      "##ummary": 2374,
      "##olicy": 2375,
      "##controller": 2376,
      "sc": 2377,
      "de": 2378,
      "##te": 2379,
      "47": 2380,
      "sub": 2381,
      "##ord": 2382,
      "call": 2383,
      "##iew": 2384,
      "##sc": 2385,
      "##93": 2386,
      "##ags": 2387,
      "##me": 2388,
      "##art": 2389,
      "##obile": 2390,
      "##itor": 2391,
      "##activity": 2392,
      "##ust": 2393,
      "##ist": 2394,
      "##ay": 2395,
      "powermanagerservice": 2396,
      "state": 2397,
      "phonei": 2398,
      "##wifi": 2399,
      "##nterface": 2400,
      "ser": 2401,
      "##onitor": 2402,
      "##000": 2403,
      "socket": 2404,
      "##info": 2405,
      "##age": 2406,
      "2030": 2407,
      "##lass": 2408,
      "##mi": 2409,
      "dec": 2410,
      "uevent": 2411,
      "upd": 2412,
      "##ame": 2413,
      "##atch": 2414,
      "th": 2415,
      "##83": 2416,
      "##udio": 2417,
      "2108": 2418,
      "##view": 2419,
      "##ter": 2420,
      "wl": 2421,
      "##led": 2422,
      "##lock": 2423,
      "##uf": 2424,
      "##ke": 2425,
      "chang": 2426,
      "activitymanager": 2427,
      "##98": 2428,
      "1922": 2429,
      "##record": 2430,
      "##14": 2431,
      "flags": 2432,
      "##ature": 2433,
      "##evel": 2434,
      "##com": 2435,
      "##trl": 2436,
      "##onnected": 2437,
      "##ind": 2438,
      "level": 2439,
      "##ks": 2440,
      "audio": 2441,
      "ctrl": 2442,
      "msg": 2443,
      "##05": 2444,
      "##til": 2445,
      "system": 2446,
      "782": 2447,
      "wlan": 2448,
      "##23": 2449,
      "0x1": 2450,
      "ad": 2451,
      "un": 2452,
      "##rom": 2453,
      "ret": 2454,
      "##74": 2455,
      "3053": 2456,
      "##ness": 2457,
      "##stre": 2458,
      "##server": 2459,
      "mode": 2460,
      "out": 2461,
      "rc": 2462,
      "##ap": 2463,
      "7827": 2464,
      "##ual": 2465,
      "##val": 2466,
      "##od": 2467,
      "##ication": 2468,
      "##impl": 2469,
      "##76": 2470,
      "data": 2471,
      "##ri": 2472,
      "##ve": 2473,
      "##ort": 2474,
      "##ach": 2475,
      "2280": 2476,
      "##und": 2477,
      "not": 2478,
      "##ine": 2479,
      "hwc": 2480,
      "##vid": 2481,
      "ex": 2482,
      "##ocation": 2483,
      "wlan0": 2484,
      "rcv": 2485,
      "uid": 2486,
      "er": 2487,
      "##69": 2488,
      "##us": 2489,
      "for": 2490,
      "##read": 2491,
      "##monitor": 2492,
      "##que": 2493,
      "##tt": 2494,
      "##enc": 2495,
      "##12": 2496,
      "##arg": 2497,
      "aut": 2498,
      "notify": 2499,
      "##ers": 2500,
      "##71": 2501,
      "##92": 2502,
      "##ub": 2503,
      "libte": 2504,
      "libteec": 2505,
      "io": 2506,
      "##util": 2507,
      "##observer": 2508,
      "intent": 2509,
      "##ht": 2510,
      "##data": 2511,
      "##ard": 2512,
      "##mode": 2513,
      "from": 2514,
      "##miss": 2515,
      "en": 2516,
      "cm": 2517,
      "##96": 2518,
      "##up": 2519,
      "id": 2520,
      "int": 2521,
      "##rent": 2522,
      "##user": 2523,
      "##ress": 2524,
      "##70": 2525,
      "##out": 2526,
      "##gro": 2527,
      "##play": 2528,
      "pid": 2529,
      "##if": 2530,
      "##ror": 2531,
      "##signalcontroller": 2532,
      "##02": 2533,
      "subid": 2534,
      "or": 2535,
      "auto": 2536,
      "##ui": 2537,
      "##57": 2538,
      "tem": 2539,
      "##68": 2540,
      "prot": 2541,
      "##ption": 2542,
      "##gress": 2543,
      "2836": 2544,
      "##54": 2545,
      "##ory": 2546,
      "##utils": 2547,
      "2700": 2548,
      "change": 2549,
      "start": 2550,
      "##cl": 2551,
      "hand": 2552,
      "##peg": 2553,
      "##21": 2554,
      "jpeg": 2555,
      "##status": 2556,
      "rcvr": 2557,
      "ueventobserver": 2558,
      "cnd": 2559,
      "app": 2560,
      "##obilesignalcontroller": 2561,
      "update": 2562,
      "##plet": 2563,
      "##49": 2564,
      "##gth": 2565,
      "##77": 2566,
      "res": 2567,
      "##15": 2568,
      "process": 2569,
      "sd": 2570,
      "##progress": 2571,
      "##ot": 2572,
      "fre": 2573,
      "##con": 2574,
      "be": 2575,
      "error": 2576,
      "##achine": 2577,
      "##machine": 2578,
      "##obuf": 2579,
      "class": 2580,
      "##pleted": 2581,
      "##ms": 2582,
      "1000": 2583,
      "##ight": 2584,
      "##enabled": 2585,
      "##cp": 2586,
      "protobuf": 2587,
      "##64": 2588,
      "policy": 2589,
      "##urrent": 2590,
      "mis": 2591,
      "##statemachine": 2592,
      "os": 2593,
      "##enable": 2594,
      "sh": 2595,
      "boost": 2596,
      "wake": 2597,
      "##32": 2598,
      "##oad": 2599,
      "##peed": 2600,
      "adj": 2601,
      "##cc": 2602,
      "cmd": 2603,
      "man": 2604,
      "##net": 2605,
      "wait": 2606,
      "##alg": 2607,
      "ss": 2608,
      "##ans": 2609,
      "##input": 2610,
      "##94": 2611,
      "status": 2612,
      "charg": 2613,
      "caller": 2614,
      "##nterfacemanager": 2615,
      "phoneinterfacemanager": 2616,
      "##stream": 2617,
      "##sh": 2618,
      "##permiss": 2619,
      "freq": 2620,
      "##ful": 2621,
      "ready": 2622,
      "0x0": 2623,
      "##90": 2624,
      "##tcom": 2625,
      "##indow": 2626,
      "##fulness": 2627,
      "##no": 2628,
      "##reen": 2629,
      "##eth": 2630,
      "##75": 2631,
      "##65": 2632,
      "manual": 2633,
      "bss": 2634,
      "wakefulness": 2635,
      "server": 2636,
      "##userid": 2637,
      "##inprogress": 2638,
      "al": 2639,
      "##gr": 2640,
      "##vider": 2641,
      "##tcompleted": 2642,
      "bootcompleted": 2643,
      "uas": 2644,
      "wks": 2645,
      "##modeenable": 2646,
      "boostinprogress": 2647,
      "waitmodeenable": 2648,
      "uasummary": 2649,
      "wksummary": 2650,
      "##ient": 2651,
      "##28": 2652,
      "cl": 2653,
      "gett": 2654,
      "fil": 2655,
      "##18": 2656,
      "1009": 2657,
      "display": 2658,
      "##for": 2659,
      "##location": 2660,
      "##own": 2661,
      "##eb": 2662,
      "##44": 2663,
      "##amer": 2664,
      "##thread": 2665,
      "##ep": 2666,
      "##type": 2667,
      "##mn": 2668,
      "##able": 2669,
      "##ey": 2670,
      "##ssage": 2671,
      "del": 2672,
      "##lev": 2673,
      "##recei": 2674,
      "##isib": 2675,
      "key": 2676,
      "hwcust": 2677,
      "me": 2678,
      "##atusb": 2679,
      "##atusbar": 2680,
      "##inter": 2681,
      "##inputstream": 2682,
      "phone": 2683,
      "##mobilesignalcontroller": 2684,
      "##nss": 2685,
      "##67": 2686,
      "fileinputstream": 2687,
      "##ult": 2688,
      "str": 2689,
      "##ith": 2690,
      "##37": 2691,
      "##ime": 2692,
      "##ffect": 2693,
      "##perature": 2694,
      "##int": 2695,
      "##ug": 2696,
      "##0000": 2697,
      "##85": 2698,
      "rtt": 2699,
      "##ta": 2700,
      "##ext": 2701,
      "##24": 2702,
      "ap": 2703,
      "2605": 2704,
      "##13": 2705,
      "##icon": 2706,
      "fe": 2707,
      "has": 2708,
      "##urn": 2709,
      "##system": 2710,
      "##fm": 2711,
      "ssid": 2712,
      "##locked": 2713,
      "##iz": 2714,
      "con": 2715,
      "##unch": 2716,
      "getdata": 2717,
      "##fig": 2718,
      "##19": 2719,
      "log": 2720,
      "##unt": 2721,
      "##sp": 2722,
      "handle": 2723,
      "##policy": 2724,
      "##17": 2725,
      "##39": 2726,
      "##ense": 2727,
      "scan": 2728,
      "##tory": 2729,
      "##fmgr": 2730,
      "##ntfmgr": 2731,
      "phoneintfmgr": 2732,
      "##ingers": 2733,
      "##ingersense": 2734,
      "84": 2735,
      "getdataenabled": 2736,
      "##88": 2737,
      "snd": 2738,
      "##56": 2739,
      "##chang": 2740,
      "hwp": 2741,
      "##atter": 2742,
      "user": 2743,
      "##ail": 2744,
      "##db": 2745,
      "filen": 2746,
      "sdk": 2747,
      "device": 2748,
      "80": 2749,
      "pk": 2750,
      "##ati": 2751,
      "##ception": 2752,
      "##35": 2753,
      "connected": 2754,
      "3299": 2755,
      "gnss": 2756,
      "##old": 2757,
      "##amera": 2758,
      "0userid": 2759,
      "##34": 2760,
      "##current": 2761,
      "##fl": 2762,
      "hme": 2763,
      "##broadcast": 2764,
      "##onnec": 2765,
      "##queue": 2766,
      "##ys": 2767,
      "##attery": 2768,
      "##arm": 2769,
      "delet": 2770,
      "##ffic": 2771,
      "di": 2772,
      "mm": 2773,
      "output": 2774,
      "message": 2775,
      "##encent": 2776,
      "tencent": 2777,
      "##ase": 2778,
      "82": 2779,
      "do": 2780,
      "##affic": 2781,
      "return": 2782,
      "hwsystem": 2783,
      "effect": 2784,
      "##mal": 2785,
      "delete": 2786,
      "2947": 2787,
      "bssid": 2788,
      "##ask": 2789,
      "##ize": 2790,
      "feature": 2791,
      "##gu": 2792,
      "##port": 2793,
      "##visib": 2794,
      "##uncher": 2795,
      "##63": 2796,
      "##guard": 2797,
      "##ethod": 2798,
      "col": 2799,
      "##speed": 2800,
      "temperature": 2801,
      "##ir": 2802,
      "60": 2803,
      "##ump": 2804,
      "##atchd": 2805,
      "##atchdog": 2806,
      "##97": 2807,
      "##mand": 2808,
      "##42": 2809,
      "cre": 2810,
      "tx": 2811,
      "##wifiw": 2812,
      "##provider": 2813,
      "##wifiwatchdog": 2814,
      "huaweiwifiwatchdog": 2815,
      "huaweiwifiwatchdogstatemachine": 2816,
      "##network": 2817,
      "##87": 2818,
      "hex": 2819,
      "run": 2820,
      "notification": 2821,
      "reading": 2822,
      "##name": 2823,
      "##46": 2824,
      "##55": 2825,
      "##86": 2826,
      "interface": 2827,
      "po": 2828,
      "##stat": 2829,
      "rx": 2830,
      "service": 2831,
      "##629": 2832,
      "##ens": 2833,
      "##ground": 2834,
      "##fa": 2835,
      "##exception": 2836,
      "##ative": 2837,
      "loc": 2838,
      "##ition": 2839,
      "##log": 2840,
      "##hed": 2841,
      "##50": 2842,
      "##file": 2843,
      "signal": 2844,
      "192": 2845,
      "##tification": 2846,
      "##ngth": 2847,
      "13629": 2848,
      "command": 2849,
      "##time": 2850,
      "new": 2851,
      "##connect": 2852,
      "##uster": 2853,
      "##40": 2854,
      "##89": 2855,
      "alarm": 2856,
      "u0": 2857,
      "##ning": 2858,
      "vo": 2859,
      "255": 2860,
      "pl": 2861,
      "##cluster": 2862,
      "##clusterview": 2863,
      "##nel": 2864,
      "##to": 2865,
      "##dump": 2866,
      "##connected": 2867,
      "##tm": 2868,
      "##iont": 2869,
      "##valid": 2870,
      "hexdump": 2871,
      "##mcc": 2872,
      "##eck": 2873,
      "deb": 2874,
      "time": 2875,
      "processrecord": 2876,
      "uns": 2877,
      "per": 2878,
      "##uch": 2879,
      "##mnc": 2880,
      "##mccmnc": 2881,
      "hwcustmobilesignalcontroller": 2882,
      "hwcustmobilesignalcontrollerimpl": 2883,
      "633": 2884,
      "charge": 2885,
      "web": 2886,
      "##ain": 2887,
      "trans": 2888,
      "##iontype": 2889,
      "##25": 2890,
      "the": 2891,
      "##lu": 2892,
      "##right": 2893,
      "hwactivity": 2894,
      "window": 2895,
      "hwsystemmanager": 2896,
      "##521": 2897,
      "##ssi": 2898,
      "##ating": 2899,
      "2633": 2900,
      "hwactivitymanagerservice": 2901,
      "callerapp": 2902,
      "##91": 2903,
      "##om": 2904,
      "pre": 2905,
      "##connector": 2906,
      "fileutils": 2907,
      "screen": 2908,
      "##form": 2909,
      "90": 2910,
      "##pstatus": 2911,
      "##uevent": 2912,
      "onuevent": 2913,
      "ueventthread": 2914,
      "##quest": 2915,
      "direc": 2916,
      "name": 2917,
      "2016": 2918,
      "##onnectivity": 2919,
      "110": 2920,
      "##upd": 2921,
      "##po": 2922,
      "updat": 2923,
      "show": 2924,
      "networkspeed": 2925,
      "tcp": 2926,
      "##group": 2927,
      "debug": 2928,
      "rem": 2929,
      "disconnected": 2930,
      "hwwifi": 2931,
      "content": 2932,
      "##patch": 2933,
      "color": 2934,
      "##ler": 2935,
      "##apper": 2936,
      "##marta": 2937,
      "31521": 2938,
      "##rapper": 2939,
      "65": 2940,
      "##uid": 2941,
      "##martae": 2942,
      "##process": 2943,
      "enqueue": 2944,
      "##wa": 2945,
      "ar": 2946,
      "##set": 2947,
      "##start": 2948,
      "##ger": 2949,
      "receiver": 2950,
      "traffic": 2951,
      "suc": 2952,
      "##rightness": 2953,
      "##strength": 2954,
      "##pt": 2955,
      "##79": 2956,
      "ptm": 2957,
      "##elock": 2958,
      "val": 2959,
      "##asks": 2960,
      "##signalclusterview": 2961,
      "hwsignalclusterview": 2962,
      "void": 2963,
      "back": 2964,
      "##level": 2965,
      "##over": 2966,
      "##ermal": 2967,
      "72": 2968,
      "##00000": 2969,
      "##permission": 2970,
      "##xy": 2971,
      "2000": 2972,
      "##hone": 2973,
      "unk": 2974,
      "client": 2975,
      "##78": 2976,
      "2266": 2977,
      "pack": 2978,
      "step": 2979,
      "##61": 2980,
      "##ry": 2981,
      "native": 2982,
      "318": 2983,
      "200": 2984,
      "##gs": 2985,
      "##dat": 2986,
      "##dconnector": 2987,
      "##buf": 2988,
      "icon": 2989,
      "an": 2990,
      "##policymanager": 2991,
      "##dr": 2992,
      "av": 2993,
      "##ited": 2994,
      "real": 2995,
      "##emp": 2996,
      "apm": 2997,
      "audiopolicymanager": 2998,
      "##visible": 2999,
      "sendbroadcast": 3000,
      "##9376": 3001,
      "op": 3002,
      "229376": 3003,
      "sndbuf": 3004,
      "outq": 3005,
      "remo": 3006,
      "thermal": 3007,
      "##ubid": 3008,
      "receive": 3009,
      "enqueueing": 3010,
      "hold": 3011,
      "##hand": 3012,
      "##abled": 3013,
      "##73": 3014,
      "##ts": 3015,
      "rssi": 3016,
      "##locationprovider": 3017,
      "##gin": 3018,
      "##receiver": 3019,
      "statusbar": 3020,
      "##ery": 3021,
      "gnsslocationprovider": 3022,
      "##intent": 3023,
      "such": 3024,
      "##imit": 3025,
      "filenode": 3026,
      "gettemp": 3027,
      "filenodeinfo": 3028,
      "gettempinfo": 3029,
      "method": 3030,
      "##ency": 3031,
      "##ered": 3032,
      "##ni": 3033,
      "inter": 3034,
      "##chr": 3035,
      "##tim": 3036,
      "mpermiss": 3037,
      "sendbroadcastpermission": 3038,
      "mpermissiontype": 3039,
      "##osmartae": 3040,
      "##kelock": 3041,
      "70": 3042,
      "##aem": 3043,
      "mobile": 3044,
      "cr": 3045,
      "dat": 3046,
      "##aemon": 3047,
      "##inis": 3048,
      "##20": 3049,
      "calling": 3050,
      "##ensor": 3051,
      "so": 3052,
      "la": 3053,
      "info": 3054,
      "bt": 3055,
      "##lob": 3056,
      "##31": 3057,
      "begin": 3058,
      "cn": 3059,
      "##lobal": 3060,
      "##facec": 3061,
      "##battery": 3062,
      "2147": 3063,
      "sec": 3064,
      "##notification": 3065,
      "fail": 3066,
      "##uc": 3067,
      "check": 3068,
      "##45": 3069,
      "##faceclass": 3070,
      "##ator": 3071,
      "touch": 3072,
      "end": 3073,
      "##qui": 3074,
      "3195": 3075,
      "##26": 3076,
      "##aram": 3077,
      "keyguard": 3078,
      "tag": 3079,
      "##ement": 3080,
      "result": 3081,
      "success": 3082,
      "directory": 3083,
      "##back": 3084,
      "##changed": 3085,
      "contro": 3086,
      "ord": 3087,
      "##managerex": 3088,
      "##58": 3089,
      "##call": 3090,
      "global": 3091,
      "##4836": 3092,
      "networkspeedmanagerex": 3093,
      "cont": 3094,
      "##management": 3095,
      "stre": 3096,
      "21474836": 3097,
      "use": 3098,
      "##list": 3099,
      "with": 3100,
      "plat": 3101,
      "11093": 3102,
      "##tx": 3103,
      "stack": 3104,
      "broadcastrecord": 3105,
      "##41": 3106,
      "##ription": 3107,
      "2147483647": 3108,
      "##emode": 3109,
      "invalid": 3110,
      "##ater": 3111,
      "##olicited": 3112,
      "unsolicited": 3113,
      "##output": 3114,
      "3371": 3115,
      "length": 3116,
      "finis": 3117,
      "##key": 3118,
      "does": 3119,
      "dispatch": 3120,
      "##by": 3121,
      "wifipro": 3122,
      "##op": 3123,
      "##fw": 3124,
      "appl": 3125,
      "##lux": 3126,
      "fingersense": 3127,
      "limit": 3128,
      "##be": 3129,
      "##segs": 3130,
      "##uth": 3131,
      "lock": 3132,
      "##ment": 3133,
      "##tive": 3134,
      "##wif": 3135,
      "ob": 3136,
      "enter": 3137,
      "report": 3138,
      "##ell": 3139,
      "temp": 3140,
      "63": 3141,
      "phoneid": 3142,
      "platform": 3143,
      "##text": 3144,
      "##43": 3145,
      "##statusbar": 3146,
      "retval": 3147,
      "init": 3148,
      "##receive": 3149,
      "changed": 3150,
      "##ting": 3151,
      "96": 3152,
      "##card": 3153,
      "##ener": 3154,
      "wh": 3155,
      "31954": 3156,
      "2374": 3157,
      "##fil": 3158,
      "ordered": 3159,
      "##ush": 3160,
      "pkg": 3161,
      "onreceive": 3162,
      "##ide": 3163,
      "##hw": 3164,
      "##pload": 3165,
      "##load": 3166,
      "ba": 3167,
      "352": 3168,
      "##802": 3169,
      "##ppalg": 3170,
      "open": 3171,
      "location": 3172,
      "##vc": 3173,
      "daemon": 3174,
      "##llect": 3175,
      "ippalg": 3176,
      "##red": 3177,
      "cras": 3178,
      "cne": 3179,
      "##302": 3180,
      "qual": 3181,
      "##filter": 3182,
      "ies": 3183,
      "nl": 3184,
      "creating": 3185,
      "##oder": 3186,
      "tasks": 3187,
      "2616": 3188,
      "sel": 3189,
      "trafficmonitor": 3190,
      "launcher": 3191,
      "crashed": 3192,
      "ash": 3193,
      "##jni": 3194,
      "wrapper": 3195,
      "libf": 3196,
      "libfingersense": 3197,
      "unkown": 3198,
      "##res": 3199,
      "##scro": 3200,
      "limiting": 3201,
      "mq": 3202,
      "210": 3203,
      "614": 3204,
      "##update": 3205,
      "##pk": 3206,
      "recover": 3207,
      "apply": 3208,
      "recovering": 3209,
      "control": 3210,
      "az": 3211,
      "svid": 3212,
      "cn0": 3213,
      "elev": 3214,
      "##imuth": 3215,
      "azimuth": 3216,
      "size": 3217,
      "hit": 3218,
      "##ise": 3219,
      "decoder": 3220,
      "##ele": 3221,
      "##inger": 3222,
      "##wit": 3223,
      "pa": 3224,
      "0x103": 3225,
      "eos": 3226,
      "146": 3227,
      "mcurrent": 3228,
      "acdb": 3229,
      "systemui": 3230,
      "4g": 3231,
      "flg": 3232,
      "##51": 3233,
      "##ected": 3234,
      "##aramet": 3235,
      "acqui": 3236,
      "0c": 3237,
      "sendto": 3238,
      "##cd": 3239,
      "##ld": 3240,
      "networkmanagement": 3241,
      "mqos": 3242,
      "3298": 3243,
      "##80211": 3244,
      "notifyinter": 3245,
      "poll": 3246,
      "##4a": 3247,
      "##ge": 3248,
      "ctx": 3249,
      "stackscro": 3250,
      "nl80211": 3251,
      "##arameters": 3252,
      "##plan": 3253,
      "267": 3254,
      "hwcamera": 3255,
      "##scription": 3256,
      "value": 3257,
      "##faceclassactivity": 3258,
      "notifyinterfaceclassactivity": 3259,
      "spl": 3260,
      "##action": 3261,
      "##used": 3262,
      "##pon": 3263,
      "187": 3264,
      "792": 3265,
      "##one": 3266,
      "##irplan": 3267,
      "326": 3268,
      "101": 3269,
      "##ore": 3270,
      "ippalgosmartae": 3271,
      "bet": 3272,
      "##factory": 3273,
      "##anel": 3274,
      "##ithm": 3275,
      "mcurrentstate": 3276,
      "can": 3277,
      "list": 3278,
      "monitor": 3279,
      "2130": 3280,
      "by": 3281,
      "powermanager": 3282,
      "##irplanemode": 3283,
      "##ly": 3284,
      "request": 3285,
      "##algor": 3286,
      "comm": 3287,
      "##algorithm": 3288,
      "##uration": 3289,
      "off": 3290,
      "##urce": 3291,
      "##found": 3292,
      "##aut": 3293,
      "##edi": 3294,
      "config": 3295,
      "##foundexception": 3296,
      "##otfoundexception": 3297,
      "connectivity": 3298,
      "##ary": 3299,
      "vol": 3300,
      "##config": 3301,
      "213083": 3302,
      "hwphone": 3303,
      "all": 3304,
      "##annel": 3305,
      "networkcontroller": 3306,
      "background": 3307,
      "5948": 3308,
      "stream": 3309,
      "qsc": 3310,
      "##59": 3311,
      "tot": 3312,
      "wifiprojni": 3313,
      "##008": 3314,
      "split": 3315,
      "baid": 3316,
      "obj": 3317,
      "err": 3318,
      "823": 3319,
      "##description": 3320,
      "0x104a": 3321,
      "##power": 3322,
      "##run": 3323,
      "0x1044": 3324,
      "61": 3325,
      "597": 3326,
      "war": 3327,
      "242": 3328,
      "failed": 3329,
      "##witch": 3330,
      "##ax": 3331,
      "##38": 3332,
      "hash": 3333,
      "add": 3334,
      "charger": 3335,
      "89": 3336,
      "ws": 3337,
      "##ink": 3338,
      "##ume": 3339,
      "msubid": 3340,
      "1011": 3341,
      "up": 3342,
      "8b": 3343,
      "wakelock": 3344,
      "3526": 3345,
      "mag": 3346,
      "iface": 3347,
      "sys": 3348,
      "##rim": 3349,
      "alarmmanager": 3350,
      "current": 3351,
      "netdconnector": 3352,
      "3069": 3353,
      "##bar": 3354,
      "em": 3355,
      "##ech": 3356,
      "rele": 3357,
      "##ps": 3358,
      "##plmn": 3359,
      "##trans": 3360,
      "##tes": 3361,
      "warn": 3362,
      "push": 3363,
      "##bys": 3364,
      "iscurrent": 3365,
      "##004": 3366,
      "wif": 3367,
      "##lay": 3368,
      "##bysim": 3369,
      "strmccmnc": 3370,
      "strplmn": 3371,
      "hashmccmnc": 3372,
      "iscurrentbysim": 3373,
      "##ated": 3374,
      "hwwifiservice": 3375,
      "##gist": 3376,
      "##ath": 3377,
      "##ility": 3378,
      "##fault": 3379,
      "362": 3380,
      "##2p": 3381,
      "128": 3382,
      "he": 3383,
      "finger": 3384,
      "##ende": 3385,
      "channel": 3386,
      "##running": 3387,
      "input": 3388,
      "##handler": 3389,
      "sende": 3390,
      "sendevent": 3391,
      "cur": 3392,
      "count": 3393,
      "##msg": 3394,
      "##aming": 3395,
      "hwbattery": 3396,
      "##rimary": 3397,
      "signalstrength": 3398,
      "filenotfoundexception": 3399,
      "##svc": 3400,
      "##ken": 3401,
      "ext": 3402,
      "##acl": 3403,
      "5157": 3404,
      "##aclub": 3405,
      "##est": 3406,
      "##algo": 3407,
      "##control": 3408,
      "##appprocess": 3409,
      "betaclub": 3410,
      "getrunning": 3411,
      "##appprocesses": 3412,
      "getrunningappprocesses": 3413,
      "##ved": 3414,
      "2d": 3415,
      "613": 3416,
      "0x1047": 3417,
      "31870": 3418,
      "##ending": 3419,
      "wifimonitor": 3420,
      "0b": 3421,
      "##ip": 3422,
      "speed": 3423,
      "block": 3424,
      "##launcher": 3425,
      "permiss": 3426,
      "hwbatteryservice": 3427,
      "ov": 3428,
      "intr": 3429,
      "water": 3430,
      "fcp": 3431,
      "scpstatus": 3432,
      "ovpstatus": 3433,
      "fcpstatus": 3434,
      "readtext": 3435,
      "readtextfile": 3436,
      "intrused": 3437,
      "const": 3438,
      "321": 3439,
      "##ecom": 3440,
      "##arget": 3441,
      "hwlauncher": 3442,
      "package": 3443,
      "##fr": 3444,
      "hwchr": 3445,
      "primary": 3446,
      "thread": 3447,
      "##iti": 3448,
      "activityin": 3449,
      "activityout": 3450,
      "hwpfw": 3451,
      "last": 3452,
      "##count": 3453,
      "##eco": 3454,
      "##cm": 3455,
      "##oul": 3456,
      "proxy": 3457,
      "##ipp": 3458,
      "sl": 3459,
      "shoul": 3460,
      "us": 3461,
      "##istory": 3462,
      "##acon": 3463,
      "battery": 3464,
      "qu": 3465,
      "sensor": 3466,
      "locsvc": 3467,
      "92": 3468,
      "2869": 3469,
      "2366": 3470,
      "euid": 3471,
      "##llalgorithm": 3472,
      "stackscrollalgorithm": 3473,
      "##airplanemode": 3474,
      "enabled": 3475,
      "prev": 3476,
      "old": 3477,
      "0x1008": 3478,
      "##07": 3479,
      "noise": 3480,
      "icongroup": 3481,
      "down": 3482,
      "0x1011": 3483,
      "##element": 3484,
      "mobilesignalcontroller": 3485,
      "hwwifiservicefactory": 3486,
      "code": 3487,
      "##ifier": 3488,
      "se": 3489,
      "2323": 3490,
      "misairplanemode": 3491,
      "##window": 3492,
      "mo": 3493,
      "0x23": 3494,
      "660": 3495,
      "##pri": 3496,
      "##arp": 3497,
      "##infl": 3498,
      "##pa": 3499,
      "susp": 3500,
      "##af": 3501,
      "provider": 3502,
      "##ocket": 3503,
      "000000": 3504,
      "suspend": 3505,
      "##flags": 3506,
      "##00400": 3507,
      "##roaming": 3508,
      "168": 3509,
      "magic": 3510,
      "##screen": 3511,
      "10000400": 3512,
      "chr": 3513,
      "##etwork": 3514,
      "##ified": 3515,
      "create": 3516,
      "802": 3517,
      "max": 3518,
      "ioexception": 3519,
      "est": 3520,
      "522": 3521,
      "clo": 3522,
      "##sim": 3523,
      "103": 3524,
      "##lap": 3525,
      "hwmobilesignalcontroller": 3526,
      "2098": 3527,
      "67": 3528,
      "##ponent": 3529,
      "act": 3530,
      "subelement": 3531,
      "wfa": 3532,
      "0x1049": 3533,
      "networkutils": 3534,
      "##igger": 3535,
      "acquire": 3536,
      "##ont": 3537,
      "sk": 3538,
      "min": 3539,
      "im": 3540,
      "extr": 3541,
      "1166": 3542,
      "##rc": 3543,
      "##point": 3544,
      "##client": 3545,
      "hwarp": 3546,
      "##verifier": 3547,
      "hwarpverifier": 3548,
      "frequ": 3549,
      "250": 3550,
      "62": 3551,
      "1010": 3552,
      "##alth": 3553,
      "2462": 3554,
      "20002": 3555,
      "##ether": 3556,
      "##print": 3557,
      "##erec": 3558,
      "incall": 3559,
      "##168": 3560,
      "##aps": 3561,
      "##pc": 3562,
      "baidu": 3563,
      "of": 3564,
      "mcontrol": 3565,
      "mcontrolpoint": 3566,
      "69": 3567,
      "total": 3568,
      "##aster": 3569,
      "load": 3570,
      "20002302": 3571,
      "##tings": 3572,
      "lte": 3573,
      "##ware": 3574,
      "##listener": 3575,
      "sn": 3576,
      "##sser": 3577,
      "##vsim": 3578,
      "5548": 3579,
      "247": 3580,
      "work": 3581,
      "##brightness": 3582,
      "##bytes": 3583,
      "3218": 3584,
      "isroaming": 3585,
      "ind": 3586,
      "exp": 3587,
      "ue": 3588,
      "any": 3589,
      "##sservice": 3590,
      "hwo": 3591,
      "target": 3592,
      "314": 3593,
      "##rypt": 3594,
      "lan": 3595,
      "68": 3596,
      "2412": 3597,
      "##resh": 3598,
      "##ache": 3599,
      "##pplication": 3600,
      "##method": 3601,
      "982": 3602,
      "health": 3603,
      "phonestatusbar": 3604,
      "##keyguard": 3605,
      "iss": 3606,
      "##elper": 3607,
      "arg": 3608,
      "query": 3609,
      "finished": 3610,
      "##change": 3611,
      "screenon": 3612,
      "##ipping": 3613,
      "##cnt": 3614,
      "##rate": 3615,
      "trigger": 3616,
      "##ify": 3617,
      "2546": 3618,
      "results": 3619,
      "hwouc": 3620,
      "##ntroller": 3621,
      "age": 3622,
      "pending": 3623,
      "lat": 3624,
      "util": 3625,
      "##abase": 3626,
      "if": 3627,
      "ok": 3628,
      "##ffff": 3629,
      "met": 3630,
      "##220": 3631,
      "##upload": 3632,
      "768": 3633,
      "tel": 3634,
      "ui": 3635,
      "##request": 3636,
      "32152": 3637,
      "##sent": 3638,
      "##cmd": 3639,
      "p2p": 3640,
      "##datas": 3641,
      "380": 3642,
      "main": 3643,
      "2596": 3644,
      "##transition": 3645,
      "75": 3646,
      "startservice": 3647,
      "2437": 3648,
      "##ure": 3649,
      "##atestate": 3650,
      "connect": 3651,
      "18168": 3652,
      "372": 3653,
      "bind": 3654,
      "##ange": 3655,
      "##from": 3656,
      "##step": 3657,
      "getor": 3658,
      "##inflatestate": 3659,
      "getorinflatestate": 3660,
      "tint": 3661,
      "##cent": 3662,
      "interval": 3663,
      "##xim": 3664,
      "##ximity": 3665,
      "73": 3666,
      "stop": 3667,
      "##timpl": 3668,
      "parameters": 3669,
      "##web": 3670,
      "108": 3671,
      "0xb": 3672,
      "form": 3673,
      "##transitions": 3674,
      "##avig": 3675,
      "num": 3676,
      "##fort": 3677,
      "##etype": 3678,
      "snr": 3679,
      "6604": 3680,
      "0x1023": 3681,
      "comfort": 3682,
      "fingerprint": 3683,
      "common": 3684,
      "latency": 3685,
      "5715": 3686,
      "3626": 3687,
      "##cur": 3688,
      "921": 3689,
      "##visibility": 3690,
      "0x103b": 3691,
      "##crypt": 3692,
      "qcamera": 3693,
      "0x1054": 3694,
      "1590": 3695,
      "0x1021": 3696,
      "default": 3697,
      "handler": 3698,
      "##eno": 3699,
      "0x1024": 3700,
      "##edata": 3701,
      "cell": 3702,
      "volume": 3703,
      "0x1042": 3704,
      "we": 3705,
      "pendingintent": 3706,
      "##mobile": 3707,
      "permission": 3708,
      "##cel": 3709,
      "##anr": 3710,
      "regist": 3711,
      "##ampl": 3712,
      "##fifo": 3713,
      "handleanr": 3714,
      "##filterfifo": 3715,
      "handleanrfilterfifo": 3716,
      "af": 3717,
      "stat": 3718,
      "cnt": 3719,
      "2312": 3720,
      "6c": 3721,
      "##light": 3722,
      "sending": 3723,
      "684": 3724,
      "##qq": 3725,
      "##ound": 3726,
      "profile": 3727,
      "##servicelocked": 3728,
      "msm": 3729,
      "2966": 3730,
      "##768": 3731,
      "81": 3732,
      "##helper": 3733,
      "##esc": 3734,
      "772": 3735,
      "##8916": 3736,
      "blocker": 3737,
      "msm8916": 3738,
      "exit": 3739,
      "finish": 3740,
      "##content": 3741,
      "sdcrypt": 3742,
      "sdcryptdconnector": 3743,
      "over": 3744,
      "ams": 3745,
      "object": 3746,
      "##size": 3747,
      "##groupvisible": 3748,
      "mobilegroupvisible": 3749,
      "hwphonestate": 3750,
      "anymobile": 3751,
      "anymobilevisible": 3752,
      "##ome": 3753,
      "##avigation": 3754,
      "##comm": 3755,
      "##apsed": 3756,
      "##proxy": 3757,
      "release": 3758,
      "running": 3759,
      "300": 3760,
      "btif": 3761,
      "##ick": 3762,
      "##socket": 3763,
      "classify": 3764,
      "cust": 3765,
      "152": 3766,
      "74": 3767,
      "decode": 3768,
      "0x4": 3769,
      "##09": 3770,
      "mms": 3771,
      "selected": 3772,
      "lsc": 3773,
      "##pend": 3774,
      "##access": 3775,
      "##wific": 3776,
      "##updatemonitor": 3777,
      "ta": 3778,
      "835": 3779,
      "keyguardupdatemonitor": 3780,
      "##edia": 3781,
      "close": 3782,
      "1781": 3783,
      "mobileqq": 3784,
      "##ormal": 3785,
      "reset": 3786,
      "##ellig": 3787,
      "wakelocks": 3788,
      "1014": 3789,
      "143": 3790,
      "##avigationbar": 3791,
      "ab": 3792,
      "##mod": 3793,
      "##pport": 3794,
      "onsignal": 3795,
      "u0a": 3796,
      "##ttp": 3797,
      "##ason": 3798,
      "lcd": 3799,
      "##stats": 3800,
      "remove": 3801,
      "31220": 3802,
      "pkt": 3803,
      "276": 3804,
      "##onnectivityservice": 3805,
      "hwconnectivityservice": 3806,
      "par": 3807,
      "collect": 3808,
      "##baf": 3809,
      "2283": 3810,
      "839": 3811,
      "##yn": 3812,
      "visib": 3813,
      "##sensor": 3814,
      "avrc": 3815,
      "visible": 3816,
      "datac": 3817,
      "##dition": 3818,
      "##eiver": 3819,
      "contex": 3820,
      "contextimpl": 3821,
      "##rtt": 3822,
      "5224": 3823,
      "extras": 3824,
      "##cb": 3825,
      "##ulp": 3826,
      "libulp": 3827,
      "source": 3828,
      "hal": 3829,
      "art": 3830,
      "camera": 3831,
      "inet": 3832,
      "##ace": 3833,
      "##onnection": 3834,
      "##fore": 3835,
      "##pkts": 3836,
      "##nl": 3837,
      "qse": 3838,
      "table": 3839,
      "##04": 3840,
      "context": 3841,
      "##component": 3842,
      "qseecom": 3843,
      "amsnl": 3844,
      "vide": 3845,
      "had": 3846,
      "are": 3847,
      "##01": 3848,
      "when": 3849,
      "##enotification": 3850,
      "##ql": 3851,
      "##ernel": 3852,
      "pri": 3853,
      "oper": 3854,
      "##eve": 3855,
      "retri": 3856,
      "retrieve": 3857,
      "au": 3858,
      "audiomanager": 3859,
      "link": 3860,
      "##message": 3861,
      "32768": 3862,
      "dn": 3863,
      "##ute": 3864,
      "##dis": 3865,
      "kernel": 3866,
      "785": 3867,
      "##ker": 3868,
      "2724": 3869,
      "256": 3870,
      "register": 3871,
      "##condition": 3872,
      "360": 3873,
      "1481": 3874,
      "##logger": 3875,
      "24266": 3876,
      "##ner": 3877,
      "##eig": 3878,
      "inetcondition": 3879,
      "hwpfwlogger": 3880,
      "ip": 3881,
      "pkts": 3882,
      "ul": 3883,
      "##add": 3884,
      "##class": 3885,
      "wifistatemachine": 3886,
      "##panel": 3887,
      "2724baf": 3888,
      "notificationmanager": 3889,
      "##locklocation": 3890,
      "##rst": 3891,
      "305": 3892,
      "##activ": 3893,
      "upload": 3894,
      "shouldb": 3895,
      "##lean": 3896,
      "##ired": 3897,
      "shouldblocklocation": 3898,
      "##active": 3899,
      "hid": 3900,
      "valid": 3901,
      "qti": 3902,
      "2607": 3903,
      "enable": 3904,
      "play": 3905,
      "##ather": 3906,
      "##act": 3907,
      "##istoryrecord": 3908,
      "##472": 3909,
      "beacon": 3910,
      "ifname": 3911,
      "##pol": 3912,
      "token": 3913,
      "index": 3914,
      "2a": 3915,
      "brightness": 3916,
      "getting": 3917,
      "filter": 3918,
      "updated": 3919,
      "##mo": 3920,
      "##ao": 3921,
      "sampl": 3922,
      "removed": 3923,
      "wifihw": 3924,
      "##334": 3925,
      "##627": 3926,
      "panel": 3927,
      "970": 3928,
      "bu": 3929,
      "sql": 3930,
      "mvsim": 3931,
      "2428": 3932,
      "wid": 3933,
      "##ft": 3934,
      "##str": 3935,
      "mask": 3936,
      "98": 3937,
      "cf": 3938,
      "##cardtype": 3939,
      "##wrapper": 3940,
      "select": 3941,
      "##curcardtype": 3942,
      "mvsimcurcardtype": 3943,
      "##enetwork": 3944,
      "##xx": 3945,
      "qos": 3946,
      "##foc": 3947,
      "mdat": 3948,
      "##collect": 3949,
      "ond": 3950,
      "767": 3951,
      "det": 3952,
      "##full": 3953,
      "015": 3954,
      "anim": 3955,
      "fore": 3956,
      "78": 3957,
      "foreground": 3958,
      "eventtime": 3959,
      "pos": 3960,
      "##130": 3961,
      "##roup": 3962,
      "cmp": 3963,
      "scen": 3964,
      "typeicon": 3965,
      "##nal": 3966,
      "only": 3967,
      "##avenetwork": 3968,
      "qcamer": 3969,
      "0x7": 3970,
      "msl": 3971,
      "mmaster": 3972,
      "mslavenetwork": 3973,
      "mmasternetwork": 3974,
      "##bient": 3975,
      "663": 3976,
      "chin": 3977,
      "3596": 3978,
      "##abel": 3979,
      "parent": 3980,
      "64": 3981,
      "2021": 3982,
      "getoutput": 3983,
      "##min": 3984,
      "aware": 3985,
      "##wifid": 3986,
      "0x103c": 3987,
      "9218": 3988,
      "switch": 3989,
      "##ild": 3990,
      "receivers": 3991,
      "media": 3992,
      "task": 3993,
      "settings": 3994,
      "##col": 3995,
      "##ave": 3996,
      "##ource": 3997,
      "##27": 3998,
      "ref": 3999,
      "1872": 4000,
      "cal": 4001,
      "pub": 4002,
      "view": 4003,
      "led": 4004,
      "##uspend": 4005,
      "download": 4006,
      "light": 4007,
      "wm": 4008,
      "overlap": 4009,
      "sound": 4010,
      "10010": 4011,
      "flag": 4012,
      "frequency": 4013,
      "fc": 4014,
      "10334": 4015,
      "hwchrwifi": 4016,
      "cancel": 4017,
      "##ence": 4018,
      "##astate": 4019,
      "activitythread": 4020,
      "##wakelock": 4021,
      "3986": 4022,
      "tether": 4023,
      "hwwifistatemachine": 4024,
      "2972": 4025,
      "contextwrapper": 4026,
      "5048": 4027,
      "##off": 4028,
      "##clud": 4029,
      "present": 4030,
      "##mask": 4031,
      "pg": 4032,
      "updatec": 4033,
      "##phone": 4034,
      "hwn": 4035,
      "##cluded": 4036,
      "##9d": 4037,
      "##fully": 4038,
      "##3d": 4039,
      "##get": 4040,
      "##emperature": 4041,
      "char": 4042,
      "85": 4043,
      "##unter": 4044,
      "support": 4045,
      "duration": 4046,
      "successfully": 4047,
      "fr": 4048,
      "cfg": 4049,
      "4e": 4050,
      "imonitor": 4051,
      "##ee": 4052,
      "notice": 4053,
      "vis": 4054,
      "##ched": 4055,
      "##ffer": 4056,
      "##internet": 4057,
      "bar": 4058,
      "pd": 4059,
      "3198": 4060,
      "114": 4061,
      "##econtent": 4062,
      "rt": 4063,
      "##pkt": 4064,
      "before": 4065,
      "803": 4066,
      "##code": 4067,
      "active": 4068,
      "##06": 4069,
      "slot": 4070,
      "##ert": 4071,
      "conn": 4072,
      "gw": 4073,
      "misc": 4074,
      "##tifi": 4075,
      "##ambient": 4076,
      "fd": 4077,
      "cub": 4078,
      "##vic": 4079,
      "##ename": 4080,
      "##iy": 4081,
      "icons": 4082,
      "##pack": 4083,
      "##62781": 4084,
      "##epd": 4085,
      "3362781": 4086,
      "3362781472": 4087,
      "cubic": 4088,
      "237": 4089,
      "##evt": 4090,
      "pubevt": 4091,
      "##onto": 4092,
      "##stepd": 4093,
      "##ortemperature": 4094,
      "##icons": 4095,
      "##300": 4096,
      "##andom": 4097,
      "contentdescription": 4098,
      "activityrecord": 4099,
      "##managerimpl": 4100,
      "http": 4101,
      "##tifier": 4102,
      "nc": 4103,
      "##ambientlux": 4104,
      "77": 4105,
      "sockets": 4106,
      "##allery": 4107,
      "ist": 4108,
      "##abl": 4109,
      "##map": 4110,
      "systemmanager": 4111,
      "##pos": 4112,
      "wi": 4113,
      "0d": 4114,
      "logupload": 4115,
      "1001": 4116,
      "proc": 4117,
      "transiti": 4118,
      "transitionto": 4119,
      "misnetwork": 4120,
      "##adio": 4121,
      "loader": 4122,
      "sent": 4123,
      "hwsystemicons": 4124,
      "random": 4125,
      "784": 4126,
      "ncchr": 4127,
      "21308391": 4128,
      "##nown": 4129,
      "##broadcastqueue": 4130,
      "radio": 4131,
      "1012": 4132,
      "skipping": 4133,
      "hwphonestatusbar": 4134,
      "##stepdata": 4135,
      "##ontroller": 4136,
      "allimpl": 4137,
      "unknown": 4138,
      "2682": 4139,
      "79": 4140,
      "gps": 4141,
      "x00": 4142,
      "102": 4143,
      "displaypower": 4144,
      "##components": 4145,
      "##amp": 4146,
      "##obao": 4147,
      "148": 4148,
      "1765": 4149,
      "226": 4150,
      "282": 4151,
      "##etime": 4152,
      "##receivercomponents": 4153,
      "collectreceivercomponents": 4154,
      "##di": 4155,
      "ne": 4156,
      "807": 4157,
      "##rs": 4158,
      "taobao": 4159,
      "97": 4160,
      "ae": 4161,
      "gallery": 4162,
      "##aparameters": 4163,
      "##uck": 4164,
      "qcameraparameters": 4165,
      "networktype": 4166,
      "##elligent": 4167,
      "br": 4168,
      "##1305": 4169,
      "##color": 4170,
      "disable": 4171,
      "20001305": 4172,
      "sendmsg": 4173,
      "it": 4174,
      "##29": 4175,
      "##modified": 4176,
      "lastmodified": 4177,
      "##phon": 4178,
      "##bo": 4179,
      "320": 4180,
      "##ood": 4181,
      "ed": 4182,
      "windowmanager": 4183,
      "10112": 4184,
      "##task": 4185,
      "2734": 4186,
      "connectedconfig": 4187,
      "hwwifiservicefactoryimpl": 4188,
      "ig": 4189,
      "##notifier": 4190,
      "##yp": 4191,
      "plug": 4192,
      "pdu": 4193,
      "##arri": 4194,
      "692": 4195,
      "##eight": 4196,
      "pktcnt": 4197,
      "video": 4198,
      "hwnetwork": 4199,
      "rout": 4200,
      "71": 4201,
      "6e": 4202,
      "wr": 4203,
      "319": 4204,
      "##ca": 4205,
      "##stamp": 4206,
      "dt": 4207,
      "3725": 4208,
      "extn": 4209,
      "##proximity": 4210,
      "##ku": 4211,
      "##ton": 4212,
      "##ite": 4213,
      "wific": 4214,
      "range": 4215,
      "83": 4216,
      "##etr": 4217,
      "127": 4218,
      "##sm": 4219,
      "bro": 4220,
      "colortemperature": 4221,
      "date": 4222,
      "87": 4223,
      "blux": 4224,
      "dlux": 4225,
      "169": 4226,
      "issuspend": 4227,
      "webs": 4228,
      "fi": 4229,
      "159": 4230,
      "##endsegs": 4231,
      "curr": 4232,
      "##utton": 4233,
      "##background": 4234,
      "mi": 4235,
      "##aker": 4236,
      "tick": 4237,
      "##igned": 4238,
      "##sem": 4239,
      "324": 4240,
      "2928": 4241,
      "mr": 4242,
      "##focus": 4243,
      "match": 4244,
      "000": 4245,
      "328": 4246,
      "##uchevent": 4247,
      "##obil": 4248,
      "1949": 4249,
      "##03": 4250,
      "spe": 4251,
      "hwd": 4252,
      "backend": 4253,
      "##ier": 4254,
      "3083": 4255,
      "avail": 4256,
      "235": 4257,
      "1953": 4258,
      "hwambientlux": 4259,
      "##filteralgo": 4260,
      "hwambientluxfilteralgo": 4261,
      "isem": 4262,
      "hwchrweb": 4263,
      "dispatching": 4264,
      "tethering": 4265,
      "packag": 4266,
      "sess": 4267,
      "##ird": 4268,
      "##erg": 4269,
      "##scan": 4270,
      "eap": 4271,
      "3803": 4272,
      "##ond": 4273,
      "unsigned": 4274,
      "deviceid": 4275,
      "8c": 4276,
      "what": 4277,
      "##ule": 4278,
      "animate": 4279,
      "dosmartae": 4280,
      "dosmartaealgo": 4281,
      "sig": 4282,
      "ps": 4283,
      "completed": 4284,
      "955": 4285,
      "label": 4286,
      "dataconnected": 4287,
      "tool": 4288,
      "hwchrwebmonitor": 4289,
      "tim": 4290,
      "sensors": 4291,
      "##ario": 4292,
      "comp": 4293,
      "retrieveservicelocked": 4294,
      "rxbytes": 4295,
      "pfw": 4296,
      "##asic": 4297,
      "##player": 4298,
      "3164": 4299,
      "##mobil": 4300,
      "typ": 4301,
      "msf": 4302,
      "hwkeyguard": 4303,
      "scenario": 4304,
      "##ooth": 4305,
      "##collectservice": 4306,
      "##mobiledata": 4307,
      "##arch": 4308,
      "94": 4309,
      "##polator": 4310,
      "5283": 4311,
      "ulp": 4312,
      "##bez": 4313,
      "##interpolator": 4314,
      "mcontrolpoint2": 4315,
      "mcontrolpoint1": 4316,
      "cubicbez": 4317,
      "##ierinterpolator": 4318,
      "cubicbezierinterpolator": 4319,
      "983": 4320,
      "packagename": 4321,
      "format": 4322,
      "##ril": 4323,
      "height": 4324,
      "3339": 4325,
      "timestamp": 4326,
      "##opp": 4327,
      "##9d87": 4328,
      "##luet": 4329,
      "##luetooth": 4330,
      "112": 4331,
      "powermanagernotifier": 4332,
      "0x302": 4333,
      "0x3029d87": 4334,
      "##dex": 4335,
      "cb": 4336,
      "hwint": 4337,
      "networkspeedview": 4338,
      "335": 4339,
      "org": 4340,
      "channels": 4341,
      "bartransitions": 4342,
      "##atr": 4343,
      "2697": 4344,
      "499": 4345,
      "##ct": 4346,
      "284": 4347,
      "sched": 4348,
      "2007": 4349,
      "hwnavigationbar": 4350,
      "999": 4351,
      "post": 4352,
      "1992": 4353,
      "##application": 4354,
      "bad": 4355,
      "##auto": 4356,
      "##ereceiver": 4357,
      "pool": 4358,
      "##wid": 4359,
      "selectoutput": 4360,
      "commonflags": 4361,
      "119": 4362,
      "record": 4363,
      "##statech": 4364,
      "27677": 4365,
      "sv": 4366,
      "gallery3d": 4367,
      "7f": 4368,
      "speaker": 4369,
      "5165": 4370,
      "217": 4371,
      "##frame": 4372,
      "buffer": 4373,
      "##hi": 4374,
      "##xp": 4375,
      "bec": 4376,
      "inser": 4377,
      "##methodmanagerservice": 4378,
      "10099": 4379,
      "270": 4380,
      "##744": 4381,
      "qosmonitor": 4382,
      "##excluded": 4383,
      "withexcluded": 4384,
      "expired": 4385,
      "##6275": 4386,
      "servic": 4387,
      "123": 4388,
      "##datasubid": 4389,
      "currdatasubid": 4390,
      "disabled": 4391,
      "##new": 4392,
      "##post": 4393,
      "normal": 4394,
      "##he": 4395,
      "1928": 4396,
      "##river": 4397,
      "##icator": 4398,
      "low": 4399,
      "01568": 4400,
      "015686275": 4401,
      "381": 4402,
      "lo": 4403,
      "480": 4404,
      "66": 4405,
      "##dispatch": 4406,
      "##center": 4407,
      "delay": 4408,
      "igno": 4409,
      "##imm": 4410,
      "##ies": 4411,
      "##ai": 4412,
      "ondata": 4413,
      "88": 4414,
      "14317": 4415,
      "322": 4416,
      "rate": 4417,
      "releas": 4418,
      "direction": 4419,
      "##home": 4420,
      "avp": 4421,
      "ondataactivity": 4422,
      "scenarioaction": 4423,
      "##ino": 4424,
      "##vol": 4425,
      "onuser": 4426,
      "##iyi": 4427,
      "offset": 4428,
      "##adding": 4429,
      "##ewindow": 4430,
      "##obrightness": 4431,
      "available": 4432,
      "3702": 4433,
      "144": 4434,
      "##stepdatamanager": 4435,
      "##erecord": 4436,
      "achi": 4437,
      "achiev": 4438,
      "130": 4439,
      "bd": 4440,
      "##ypeicon": 4441,
      "1771": 4442,
      "162": 4443,
      "##282": 4444,
      "120": 4445,
      "refresh": 4446,
      "database": 4447,
      "204": 4448,
      "eventcenter": 4449,
      "transaction": 4450,
      "109": 4451,
      "783": 4452,
      "connectivityservice": 4453,
      "win": 4454,
      "ignore": 4455,
      "application": 4456,
      "##native": 4457,
      "3556": 4458,
      "##tun": 4459,
      "3858": 4460,
      "devices": 4461,
      "99": 4462,
      "trafficpanel": 4463,
      "##down": 4464,
      "rg": 4465,
      "##uan": 4466,
      "stand": 4467,
      "dns": 4468,
      "position": 4469,
      "##anded": 4470,
      "miswific": 4471,
      "stub": 4472,
      "4126": 4473,
      "##dec": 4474,
      "015686275userid": 4475,
      "without": 4476,
      "reason": 4477,
      "called": 4478,
      "##lot": 4479,
      "line": 4480,
      "pushlog": 4481,
      "596": 4482,
      "##indicator": 4483,
      "##sdr": 4484,
      "sport": 4485,
      "##ouchevent": 4486,
      "##autobrightness": 4487,
      "bg": 4488,
      "bone": 4489,
      "5f": 4490,
      "strength": 4491,
      "175": 4492,
      "3035": 4493,
      "setmobiledata": 4494,
      "##wide": 4495,
      "5215": 4496,
      "##indicatorsh": 4497,
      "showactivity": 4498,
      "##econtentdescription": 4499,
      "istypeicon": 4500,
      "typecontentdescription": 4501,
      "strengthicon": 4502,
      "setmobiledataindicatorsh": 4503,
      "istypeiconwide": 4504,
      "setmobiledataindicatorshuawei": 4505,
      "815": 4506,
      "698": 4507,
      "arg1": 4508,
      "315": 4509,
      "257": 4510,
      "6638": 4511,
      "ml": 4512,
      "1793": 4513,
      "presently": 4514,
      "4c": 4515,
      "##ek": 4516,
      "recv": 4517,
      "##noupdate": 4518,
      "##attime": 4519,
      "minim": 4520,
      "##enum": 4521,
      "410": 4522,
      "##ifs": 4523,
      "cta": 4524,
      "ctaifs": 4525,
      "sha": 4526,
      "should": 4527,
      "ifaceclass": 4528,
      "mcc": 4529,
      "triggerattime": 4530,
      "locclient": 4531,
      "##updat": 4532,
      "##ged": 4533,
      "##beacon": 4534,
      "0x2": 4535,
      "125": 4536,
      "releasing": 4537,
      "##eni": 4538,
      "##ection": 4539,
      "134": 4540,
      "##noupdatelocked": 4541,
      "achieved": 4542,
      "##ring": 4543,
      "qmi": 4544,
      "##inointernet": 4545,
      "sim": 4546,
      "2796": 4547,
      "##fer": 4548,
      "5994": 4549,
      "124": 4550,
      "##00000000": 4551,
      "273": 4552,
      "holdservice": 4553,
      "##cell": 4554,
      "callback": 4555,
      "##ther": 4556,
      "##we": 4557,
      "95": 4558,
      "##oop": 4559,
      "25019": 4560,
      "##ong": 4561,
      "pushlog282": 4562,
      "##usic": 4563,
      "2745": 4564,
      "##sel": 4565,
      "91": 4566,
      "##ade": 4567,
      "219": 4568,
      "76": 4569,
      "reb": 4570,
      "230": 4571,
      "a6": 4572,
      "301": 4573,
      "117": 4574,
      "164": 4575,
      "idle": 4576,
      "1482": 4577,
      "##use": 4578,
      "returns": 4579,
      "pendingintentrecord": 4580,
      "##ocall": 4581,
      "##steps": 4582,
      "##handle": 4583,
      "motion": 4584,
      "qcril": 4585,
      "115": 4586,
      "events": 4587,
      "165": 4588,
      "606": 4589,
      "2867": 4590,
      "wificontroller": 4591,
      "##par": 4592,
      "cache": 4593,
      "##ount": 4594,
      "781": 4595,
      "##times": 4596,
      "wifiservice": 4597,
      "autostart": 4598,
      "##orage": 4599,
      "126": 4600,
      "##amgr": 4601,
      "274": 4602,
      "##updatamgr": 4603,
      "autostartupdatamgr": 4604,
      "loss": 4605,
      "test": 4606,
      "##cont": 4607,
      "##ber": 4608,
      "##tot": 4609,
      "widget": 4610,
      "##wser": 4611,
      "remov": 4612,
      "servicerecord": 4613,
      "le": 4614,
      "##timer": 4615,
      "msim": 4616,
      "##alarm": 4617,
      "3326": 4618,
      "cancelnotification": 4619,
      "##statsservice": 4620,
      "##058": 4621,
      "##679": 4622,
      "##amount": 4623,
      "signalclusterview": 4624,
      "##overlap": 4625,
      "##fb": 4626,
      "##elapsed": 4627,
      "hib": 4628,
      "##adat": 4629,
      "displaypowercontroller": 4630,
      "awarelog": 4631,
      "acquiring": 4632,
      "10132": 4633,
      "ent": 4634,
      "113": 4635,
      "second": 4636,
      "303": 4637,
      "##track": 4638,
      "##sn": 4639,
      "perf": 4640,
      "##ml": 4641,
      "107": 4642,
      "##audio": 4643,
      "325": 4644,
      "ont": 4645,
      "news": 4646,
      "base": 4647,
      "400": 4648,
      "##anet": 4649,
      "##anim": 4650,
      "##dispatcher": 4651,
      "transition": 4652,
      "##ities": 4653,
      "##ateutils": 4654,
      "hwdateutils": 4655,
      "##adatetime": 4656,
      "323": 4657,
      "121": 4658,
      "usage": 4659,
      "180": 4660,
      "port": 4661,
      "140": 4662,
      "##activitynoupdatelocked": 4663,
      "useractivitynoupdatelocked": 4664,
      "##locationchanged": 4665,
      "onuseractivity": 4666,
      "meit": 4667,
      "##traffic": 4668,
      "path": 4669,
      "connection": 4670,
      "free": 4671,
      "need": 4672,
      "ack": 4673,
      "##hid": 4674,
      "rat": 4675,
      "86": 4676,
      "##888": 4677,
      "2130839195": 4678,
      "exist": 4679,
      "##stro": 4680,
      "6f": 4681,
      "meituan": 4682,
      "2861": 4683,
      "storage": 4684,
      "##pool": 4685,
      "244": 4686,
      "3a": 4687,
      "db": 4688,
      "147": 4689,
      "##igh": 4690,
      "##phony": 4691,
      "##pty": 4692,
      "275": 4693,
      "arg2": 4694,
      "111": 4695,
      "##rss": 4696,
      "##atching": 4697,
      "broadcastintent": 4698,
      "2964": 4699,
      "##000000": 4700,
      "##vers": 4701,
      "##textview": 4702,
      "maxelapsed": 4703,
      "telapsed": 4704,
      "26744": 4705,
      "destro": 4706,
      "##statemanager": 4707,
      "##1b": 4708,
      "empty": 4709,
      "##ersion": 4710,
      "ie": 4711,
      "version": 4712,
      "tinttextview": 4713,
      "map": 4714,
      "308": 4715,
      "##cdm": 4716,
      "hwg": 4717,
      "frame": 4718,
      "1046": 4719,
      "##regist": 4720,
      "##tunnel": 4721,
      "##controllerimpl": 4722,
      "122": 4723,
      "136": 4724,
      "##cre": 4725,
      "##sg": 4726,
      "##den": 4727,
      "shared": 4728,
      "dr": 4729,
      "##itive": 4730,
      "316": 4731,
      "##ecute": 4732,
      "##immed": 4733,
      "##atrue": 4734,
      "usec": 4735,
      "##peratrue": 4736,
      "temperatrue": 4737,
      "194": 4738,
      "qcrilmsg": 4739,
      "qcrilmsgtunnel": 4740,
      "oem": 4741,
      "iswifi": 4742,
      "datas": 4743,
      "entry": 4744,
      "userid": 4745,
      "##arrier": 4746,
      "##uating": 4747,
      "##ened": 4748,
      "##tl": 4749,
      "160": 4750,
      "##aged": 4751,
      "##counter": 4752,
      "##kb": 4753,
      "203": 4754,
      "##fe": 4755,
      "area": 4756,
      "webrtt": 4757,
      "got": 4758,
      "0a": 4759,
      "binder": 4760,
      "brain": 4761,
      "##formation": 4762,
      "93": 4763,
      "hwchrwifirss": 4764,
      "hwchrwifirssig": 4765,
      "3879": 4766,
      "##default": 4767,
      "san": 4768,
      "##kuai": 4769,
      "sankuai": 4770,
      "##hdr": 4771,
      "packet": 4772,
      "hwchrwifirssigroup": 4773,
      "3557": 4774,
      "ev": 4775,
      "vib": 4776,
      "254": 4777,
      "##100": 4778,
      "usecase": 4779,
      "##eval": 4780,
      "hidden": 4781,
      "this": 4782,
      "weather": 4783,
      "816": 4784,
      "##ere": 4785,
      "##calling": 4786,
      "313": 4787,
      "172": 4788,
      "3d": 4789,
      "handlelocationchanged": 4790,
      "handlelocationchangedlocked": 4791,
      "173": 4792,
      "818": 4793,
      "249": 4794,
      "##agent": 4795,
      "118": 4796,
      "207": 4797,
      "##eview": 4798,
      "##framework": 4799,
      "##umm": 4800,
      "193": 4801,
      "10679": 4802,
      "browser": 4803,
      "384": 4804,
      "106": 4805,
      "116": 4806,
      "panelview": 4807,
      "##space": 4808,
      "hwpfwapp": 4809,
      "dur": 4810,
      "logdat": 4811,
      "curpos": 4812,
      "bound": 4813,
      "774": 4814,
      "hwkeyguardmanagerimpl": 4815,
      "31464": 4816,
      "3180": 4817,
      "##itmap": 4818,
      "stats": 4819,
      "##wait": 4820,
      "e6": 4821,
      "scanning": 4822,
      "##167": 4823,
      "##manger": 4824,
      "215": 4825,
      "bounds": 4826,
      "240": 4827,
      "##ponse": 4828,
      "find": 4829,
      "195": 4830,
      "rebatching": 4831,
      "ril": 4832,
      "0000": 4833,
      "382": 4834,
      "##index": 4835,
      "listener": 4836,
      "ca": 4837,
      "814": 4838,
      "history": 4839,
      "hwnetworkcontrollerimpl": 4840,
      "198": 4841,
      "updatecl": 4842,
      "session": 4843,
      "handl": 4844,
      "as": 4845,
      "3253": 4846,
      "##activated": 4847,
      "##ensitive": 4848,
      "isoverlap": 4849,
      "##esensitive": 4850,
      "updatedimmed": 4851,
      "##hidesensitive": 4852,
      "updateclipping": 4853,
      "##activatedhidesensitive": 4854,
      "updatedimmedactivatedhidesensitive": 4855,
      "4254": 4856,
      "105": 4857,
      "updatet": 4858,
      "##check": 4859,
      "gettasks": 4860,
      "##ergency": 4861,
      "395": 4862,
      "##ulated": 4863,
      "doz": 4864,
      "mem": 4865,
      "utils": 4866,
      "qualified": 4867,
      "1154": 4868,
      "2385": 4869,
      "808": 4870,
      "lang": 4871,
      "##ummery": 4872,
      "588": 4873,
      "##mem": 4874,
      "156": 4875,
      "##encies": 4876,
      "frequencies": 4877,
      "##head": 4878,
      "2322": 4879,
      "104": 4880,
      "iswifipro": 4881,
      "##isplay": 4882,
      "##uatingap": 4883,
      "##evaluatingap": 4884,
      "iswifiproevaluatingap": 4885,
      "##fc": 4886,
      "1825": 4887,
      "##spon": 4888,
      "##f4": 4889,
      "##bad": 4890,
      "600": 4891,
      "666": 4892,
      "started": 4893,
      "##apter": 4894,
      "##duration": 4895,
      "##740": 4896,
      "##ingrate": 4897,
      "txpkts": 4898,
      "##3g": 4899,
      "##hr": 4900,
      "samplingrate": 4901,
      "2dsdr": 4902,
      "channelmask": 4903,
      "218": 4904,
      "gettimer": 4905,
      "##ulti": 4906,
      "##iv": 4907,
      "tcpclient": 4908,
      "10330": 4909,
      "during": 4910,
      "que": 4911,
      "607": 4912,
      "lu": 4913,
      "##pid": 4914,
      "txbytes": 4915,
      "rxpkts": 4916,
      "##mb": 4917,
      "exif": 4918,
      "##vis": 4919,
      "##econtroller": 4920,
      "177": 4921,
      "##ole": 4922,
      "##scre": 4923,
      "rsp": 4924,
      "170": 4925,
      "##error": 4926,
      "response": 4927,
      "xml": 4928,
      "##mart": 4929,
      "295": 4930,
      "ec": 4931,
      "##cdmas": 4932,
      "mcdmas": 4933,
      "is3g": 4934,
      "mcdmaslot": 4935,
      "is3gcalling": 4936,
      "##escreen": 4937,
      "##music": 4938,
      "##good": 4939,
      "##det": 4940,
      "800": 4941,
      "212": 4942,
      "mix": 4943,
      "bo": 4944,
      "129": 4945,
      "##acks": 4946,
      "##comp": 4947,
      "priv": 4948,
      "0xe": 4949,
      "4492": 4950,
      "##dup": 4951,
      "##ablis": 4952,
      "##rsts": 4953,
      "##dupacks": 4954,
      "##ablisrst": 4955,
      "getoutputfor": 4956,
      "722": 4957,
      "1768": 4958,
      "e5": 4959,
      "378": 4960,
      "6500": 4961,
      "hiber": 4962,
      "155": 4963,
      "proximity": 4964,
      "##atchin": 4965,
      "131": 4966,
      "##istic": 4967,
      "formatchin": 4968,
      "311": 4969,
      "srs": 4970,
      "309": 4971,
      "updatenotification": 4972,
      "231": 4973,
      "eng": 4974,
      "##brightnesscontroller": 4975,
      "183": 4976,
      "216": 4977,
      "progress": 4978,
      "stackscroller": 4979,
      "6d": 4980,
      "commun": 4981,
      "336": 4982,
      "10107": 4983,
      "##escription": 4984,
      "bld": 4985,
      "234": 4986,
      "3302": 4987,
      "##yle": 4988,
      "1527": 4989,
      "500": 4990,
      "208": 4991,
      "permissiondb": 4992,
      "##total": 4993,
      "2328": 4994,
      "nati": 4995,
      "787": 4996,
      "2463": 4997,
      "##iod": 4998,
      "213": 4999,
      "605": 5000,
      "third": 5001,
      "hwbroadcastqueue": 5002,
      "queue": 5003,
      "798": 5004,
      "225": 5005,
      "142": 5006,
      "2337": 5007,
      "150": 5008,
      "902": 5009,
      "baidum": 5010,
      "1295": 5011,
      "199": 5012,
      "uni": 5013,
      "okc": 5014,
      "390": 5015,
      "523": 5016,
      "qualcomm": 5017,
      "##iss": 5018,
      "220": 5019,
      "##switch": 5020,
      "mdata": 5021,
      "mext": 5022,
      "extdata": 5023,
      "mdatastate": 5024,
      "mdatanet": 5025,
      "mslavenetworktype": 5026,
      "mslavenetworklevel": 5027,
      "mmasternetworktype": 5028,
      "mmasternetworklevel": 5029,
      "mdataactivity": 5030,
      "mextdata": 5031,
      "mdatanettype": 5032,
      "profiles": 5033,
      "##summery": 5034,
      "andr": 5035,
      "132": 5036,
      "charging": 5037,
      "mpc": 5038,
      "mpctl": 5039,
      "253": 5040,
      "137": 5041,
      "10872": 5042,
      "alert": 5043,
      "c8": 5044,
      "##ports": 5045,
      "601": 5046,
      "home": 5047,
      "1171": 5048,
      "requesting": 5049,
      "157": 5050,
      "dispatchevent": 5051,
      "sum": 5052,
      "after": 5053,
      "##starttime": 5054,
      "801": 5055,
      "##p2p": 5056,
      "383": 5057,
      "baidumap": 5058,
      "inserth": 5059,
      "794": 5060,
      "2883": 5061,
      "##visitor": 5062,
      "permissiontype": 5063,
      "permissiondbvisitor": 5064,
      "1782": 5065,
      "historyrecord": 5066,
      "datestarttime": 5067,
      "inserthistoryrecord": 5068,
      "bc": 5069,
      "##etherstats": 5070,
      "0x108": 5071,
      "307": 5072,
      "##plo": 5073,
      "16893": 5074,
      "communication": 5075,
      "found": 5076,
      "209": 5077,
      "onoff": 5078,
      "compens": 5079,
      "90300": 5080,
      "265": 5081,
      "##reason": 5082,
      "pay": 5083,
      "launch": 5084,
      "##ync": 5085,
      "##width": 5086,
      "search": 5087,
      "##slocked": 5088,
      "item": 5089,
      "driver": 5090,
      "##e0": 5091,
      "138": 5092,
      "2917": 5093,
      "bindservicelocked": 5094,
      "3075": 5095,
      "379": 5096,
      "182": 5097,
      "1927": 5098,
      "##recv": 5099,
      "##unce": 5100,
      "227": 5101,
      "##common": 5102,
      "sample": 5103,
      "cap": 5104,
      "##our": 5105,
      "cmcc": 5106,
      "377": 5107,
      "##p2pservice": 5108,
      "aud": 5109,
      "260": 5110,
      "##elephony": 5111,
      "repe": 5112,
      "private": 5113,
      "windowmanger": 5114,
      "emulated": 5115,
      "##weather": 5116,
      "202": 5117,
      "287": 5118,
      "347": 5119,
      "##ash": 5120,
      "internal": 5121,
      "3608": 5122,
      "640": 5123,
      "385": 5124,
      "setting": 5125,
      "##nation": 5126,
      "##002": 5127,
      "##ict": 5128,
      "hibernation": 5129,
      "allow": 5130,
      "##admin": 5131,
      "##adapter": 5132,
      "297": 5133,
      "jni": 5134,
      "176": 5135,
      "codec": 5136,
      "sets": 5137,
      "vibrate": 5138,
      "##lur": 5139,
      "##nam": 5140,
      "compensate": 5141,
      "master": 5142,
      "##ager": 5143,
      "mtx": 5144,
      "##alog": 5145,
      "##link": 5146,
      "qq": 5147,
      "190": 5148,
      "376": 5149,
      "hwwific": 5150,
      "qcrilmsgtunnelsocket": 5151,
      "310": 5152,
      "addr": 5153,
      "phonetype": 5154,
      "afe": 5155,
      "##337": 5156,
      "watch": 5157,
      "236": 5158,
      "##9311": 5159,
      "917": 5160,
      "nid": 5161,
      "864": 5162,
      "##schanged": 5163,
      "252": 5164,
      "5214": 5165,
      "232": 5166,
      "slave": 5167,
      "targetclass": 5168,
      "masterlevel": 5169,
      "slavelevel": 5170,
      "##reshold": 5171,
      "2715": 5172,
      "135": 5173,
      "##statechang": 5174,
      "fpc": 5175,
      "283": 5176,
      "##spd": 5177,
      "31868": 5178,
      "##fre": 5179,
      "##proc": 5180,
      "b3": 5181,
      "##sr": 5182,
      "393": 5183,
      "inetwork": 5184,
      "##eventobserver": 5185,
      "##managementeventobserver": 5186,
      "inetworkmanagementeventobserver": 5187,
      "##mium": 5188,
      "386": 5189,
      "387": 5190,
      "##0000000": 5191,
      "##romium": 5192,
      "262": 5193,
      "##issuck": 5194,
      "603": 5195,
      "##eventfrom": 5196,
      "posteventfrom": 5197,
      "posteventfromnative": 5198,
      "2349": 5199,
      "779": 5200,
      "484": 5201,
      "##err": 5202,
      "telecom": 5203,
      "timeout": 5204,
      "521": 5205,
      "139": 5206,
      "312": 5207,
      "145": 5208,
      "481": 5209,
      "##ket": 5210,
      "1480": 5211,
      "2130839311": 5212,
      "##onscreen": 5213,
      "##windowmanager": 5214,
      "10111": 5215,
      "1272": 5216,
      "mhw": 5217,
      "786": 5218,
      "804": 5219,
      "24167": 5220,
      "controller": 5221,
      "simcard": 5222,
      "bluetooth": 5223,
      "selectedconfig": 5224,
      "gettetherstats": 5225,
      "##ious": 5226,
      "188": 5227,
      "222": 5228,
      "##ou": 5229,
      "statusbarwindowmanager": 5230,
      "0f": 5231,
      "368": 5232,
      "previous": 5233,
      "1819": 5234,
      "seconds": 5235,
      "272": 5236,
      "chromium": 5237,
      "##sec": 5238,
      "hwphon": 5239,
      "3368": 5240,
      "same": 5241,
      "##diff": 5242,
      "carrier": 5243,
      "##lation": 5244,
      "##signalstrength": 5245,
      "updatesignalstrength": 5246,
      "205": 5247,
      "181": 5248,
      "302": 5249,
      "2320": 5250,
      "149": 5251,
      "##strengthschanged": 5252,
      "onsignalstrengthschanged": 5253,
      "9555": 5254,
      "392": 5255,
      "payload": 5256,
      "##9a": 5257,
      "cons": 5258,
      "403": 5259,
      "china": 5260,
      "184": 5261,
      "2b": 5262,
      "login": 5263,
      "153": 5264,
      "251": 5265,
      "##allpa": 5266,
      "##allpaper": 5267,
      "987": 5268,
      "##accessib": 5269,
      "levelold": 5270,
      "##229": 5271,
      "2619": 5272,
      "285": 5273,
      "3270": 5274,
      "562": 5275,
      "821": 5276,
      "388": 5277,
      "##not": 5278,
      "##settings": 5279,
      "##ration": 5280,
      "189": 5281,
      "##medi": 5282,
      "1775": 5283,
      "##quired": 5284,
      "ether": 5285,
      "ethernet": 5286,
      "840": 5287,
      "exception": 5288,
      "##ffffff": 5289,
      "389": 5290,
      "391": 5291,
      "547": 5292,
      "##classname": 5293,
      "##accessibility": 5294,
      "##contentdescription": 5295,
      "minimal": 5296,
      "##accessibilityclassname": 5297,
      "243": 5298,
      "248": 5299,
      "natived": 5300,
      "##outputdevice": 5301,
      "133": 5302,
      "369": 5303,
      "##np": 5304,
      "isdefault": 5305,
      "158": 5306,
      "mct": 5307,
      "period": 5308,
      "166": 5309,
      "463": 5310,
      "0x8": 5311,
      "2785": 5312,
      "done": 5313,
      "##ccard": 5314,
      "skip": 5315,
      "clean": 5316,
      "dow": 5317,
      "2002": 5318,
      "##ploy": 5319,
      "employ": 5320,
      "##box": 5321,
      "component": 5322,
      "keyevent": 5323,
      "##information": 5324,
      "330": 5325,
      "mh": 5326,
      "employee": 5327,
      "699": 5328,
      "##dataswitch": 5329,
      "##atabase": 5330,
      "141": 5331,
      "2990": 5332,
      "1769": 5333,
      "##tain": 5334,
      "811": 5335,
      "repeat": 5336,
      "aps": 5337,
      "##hasic": 5338,
      "misvsim": 5339,
      "misdataswitch": 5340,
      "mishasic": 5341,
      "##speedenabled": 5342,
      "misnetworkvalid": 5343,
      "misnetworkspeedenabled": 5344,
      "miswificonnected": 5345,
      "misvsimenable": 5346,
      "misdataswitchenabled": 5347,
      "mishasicccard": 5348,
      "updatevisibility": 5349,
      "245": 5350,
      "214": 5351,
      "group": 5352,
      "598": 5353,
      "##setup": 5354,
      "los": 5355,
      "mwifi": 5356,
      "##are": 5357,
      "3009": 5358,
      "2777": 5359,
      "##statereceiver": 5360,
      "trim": 5361,
      "obtain": 5362,
      "##top": 5363,
      "3020": 5364,
      "2618": 5365,
      "##cept": 5366,
      "rilj": 5367,
      "##pair": 5368,
      "197": 5369,
      "networkname": 5370,
      "auth": 5371,
      "185": 5372,
      "##803": 5373,
      "4d": 5374,
      "201": 5375,
      "1a": 5376,
      "iq": 5377,
      "usersetup": 5378,
      "163": 5379,
      "28277": 5380,
      "mn": 5381,
      "isemergency": 5382,
      "16894": 5383,
      "##inner": 5384,
      "qui": 5385,
      "3021": 5386,
      "getlocation": 5387,
      "plugin": 5388,
      "##icont": 5389,
      "telephony": 5390,
      "196": 5391,
      "##fail": 5392,
      "16905": 5393,
      "quipc": 5394,
      "will": 5395,
      "##andwidth": 5396,
      "223": 5397,
      "##changemode": 5398,
      "280": 5399,
      "3578": 5400,
      "airplanemode": 5401,
      "gnp": 5402,
      "networknam": 5403,
      "##networkchangemode": 5404,
      "datasim": 5405,
      "carriernetworkchangemode": 5406,
      "networknamedata": 5407,
      "394": 5408,
      "246": 5409,
      "sqlite": 5410,
      "##ppolicy": 5411,
      "##igin": 5412,
      "##started": 5413,
      "304": 5414,
      "2942": 5415,
      "iqiyi": 5416,
      "##viders": 5417,
      "5199": 5418,
      "1774": 5419,
      "261": 5420,
      "navigationbar": 5421,
      "662": 5422,
      "9834": 5423,
      "##notificationimpl": 5424,
      "##tag": 5425,
      "windowstate": 5426,
      "packets": 5427,
      "817": 5428,
      "##az": 5429,
      "191": 5430,
      "##ook": 5431,
      "##ject": 5432,
      "hwcustnotificationimpl": 5433,
      "690": 5434,
      "233": 5435,
      "##selected": 5436,
      "##ogy": 5437,
      "v02": 5438,
      "907": 5439,
      "##addr": 5440,
      "fingerprintservice": 5441,
      "206": 5442,
      "375": 5443,
      "##unted": 5444,
      "##clock": 5445,
      "271": 5446,
      "##oday": 5447,
      "279": 5448,
      "##inputmethodmanagerservice": 5449,
      "294": 5450,
      "svc": 5451,
      "766": 5452,
      "width": 5453,
      "##otation": 5454,
      "bytes": 5455,
      "##market": 5456,
      "##keyapp": 5457,
      "newy": 5458,
      "0x7f": 5459,
      "cloud": 5460,
      "151": 5461,
      "##translation": 5462,
      "22648": 5463,
      "appmarket": 5464,
      "806": 5465,
      "mrssi": 5466,
      "intelligent": 5467,
      "gettopp": 5468,
      "##notificationend": 5469,
      "overlapamount": 5470,
      "##free": 5471,
      "previousnotificationend": 5472,
      "getlocationonscreen": 5473,
      "newytranslation": 5474,
      "gettoppadding": 5475,
      "211": 5476,
      "hwintelligent": 5477,
      "##ene": 5478,
      "##820": 5479,
      "819": 5480,
      "290": 5481,
      "366": 5482,
      "lux": 5483,
      "264": 5484,
      "isch": 5485,
      "##b3": 5486,
      "##button": 5487,
      "proximitysensor": 5488,
      "bn": 5489,
      "##etraffic": 5490,
      "hwintelligent3": 5491,
      "mproximity": 5492,
      "2369": 5493,
      "239": 5494,
      "289": 5495,
      "3196": 5496,
      "##clog": 5497,
      "2969": 5498,
      "##pn": 5499,
      "##acquired": 5500,
      "3547": 5501,
      "##onfig": 5502,
      "317": 5503,
      "##loop": 5504,
      "292": 5505,
      "simcardmethod": 5506,
      "396": 5507,
      "##icinformation": 5508,
      "hwalgorithm": 5509,
      "hwalgorithmicinformation": 5510,
      "##lockscreen": 5511,
      "##ermin": 5512,
      "2381": 5513,
      "##inks": 5514,
      "nclog": 5515,
      "##leep": 5516,
      "route": 5517,
      "dump": 5518,
      "tcpclientthread": 5519,
      "nativedaemon": 5520,
      "incallui": 5521,
      "##odaytotal": 5522,
      "344": 5523,
      "mselected": 5524,
      "mselectedconfig": 5525,
      "bgkeyapp": 5526,
      "mp": 5527,
      "##webstatus": 5528,
      "##elist": 5529,
      "##source": 5530,
      "var": 5531,
      "origin": 5532,
      "cle": 5533,
      "1926": 5534,
      "high": 5535,
      "userhandle": 5536,
      "inner": 5537,
      "##iconfig": 5538,
      "##go": 5539,
      "nclogcollectservice": 5540,
      "##gy": 5541,
      "acc": 5542,
      "621": 5543,
      "##etouchevent": 5544,
      "298": 5545,
      "playback": 5546,
      "##result": 5547,
      "sqlited": 5548,
      "listent": 5549,
      "##osocket": 5550,
      "10141": 5551,
      "listentosocket": 5552,
      "communications": 5553,
      "nativedaemonconnector": 5554,
      "lx": 5555,
      "##vened": 5556,
      "##dn": 5557,
      "determin": 5558,
      "5e": 5559,
      "e0": 5560,
      "##mwifi": 5561,
      "##mwifid": 5562,
      "##strengthid": 5563,
      "mwifivisible": 5564,
      "##mwifistrengthid": 5565,
      "##mwifidescription": 5566,
      "533": 5567,
      "##parser": 5568,
      "293": 5569,
      "3168": 5570,
      "wifisignalcontroller": 5571,
      "wifinointernet": 5572,
      "ischaged": 5573,
      "##execute": 5574,
      "179": 5575,
      "419": 5576,
      "aui": 5577,
      "3749": 5578,
      "##2a": 5579,
      "3151": 5580,
      "241": 5581,
      "defaults": 5582,
      "boostframework": 5583,
      "238": 5584,
      "writ": 5585,
      "##c0": 5586,
      "uint": 5587,
      "sqlitedatabase": 5588,
      "##eceiver": 5589,
      "##wifidisplay": 5590,
      "##ntervened": 5591,
      "bt1": 5592,
      "dt1": 5593,
      "blux1": 5594,
      "dlux1": 5595,
      "mlx": 5596,
      "mproximitystate": 5597,
      "auintervened": 5598,
      "##wifidisplayscan": 5599,
      "171": 5600,
      "221": 5601,
      "uint32": 5602,
      "##statechanged": 5603,
      "hwwifichr": 5604,
      "33554": 5605,
      "ce": 5606,
      "txm": 5607,
      "327": 5608,
      "contentview": 5609,
      "186": 5610,
      "10033": 5611,
      "##stop": 5612,
      "224": 5613,
      "resol": 5614,
      "clock": 5615,
      "##ae": 5616,
      "##shade": 5617,
      "updatenotificationshade": 5618,
      "sz": 5619,
      "278": 5620,
      "154": 5621,
      "831": 5622,
      "##awable": 5623,
      "3988": 5624,
      "572": 5625,
      "##amic": 5626,
      "##ynamic": 5627,
      "1783": 5628,
      "810": 5629,
      "##ident": 5630,
      "##dk": 5631,
      "167": 5632,
      "aeq": 5633,
      "##create": 5634,
      "bitmap": 5635,
      "963": 5636,
      "operstate": 5637,
      "ctrlsocket": 5638,
      "0e": 5639,
      "780": 5640,
      "##rcp": 5641,
      "942": 5642,
      "##frag": 5643,
      "##bind": 5644,
      "757": 5645,
      "wificonfig": 5646,
      "##roz": 5647,
      "cd": 5648,
      "listenertag": 5649,
      "422": 5650,
      "##ass": 5651,
      "##interval": 5652,
      "plugged": 5653,
      "##600": 5654,
      "##package": 5655,
      "console": 5656,
      "##respon": 5657,
      "7f14": 5658,
      "evt": 5659,
      "602": 5660,
      "##icle": 5661,
      "startup": 5662,
      "178": 5663,
      "##sav": 5664,
      "832": 5665,
      "48000": 5666,
      "##fcount": 5667,
      "mbeacon": 5668,
      "263": 5669,
      "extend": 5670,
      "article": 5671,
      "locationinfo": 5672,
      "inputdispatcher": 5673,
      "269": 5674,
      "748": 5675,
      "truemwifistrengthid": 5676,
      "3177": 5677,
      "##wn": 5678,
      "4094": 5679,
      "##uivisibility": 5680,
      "793": 5681,
      "##entry": 5682,
      "##effect": 5683,
      "398": 5684,
      "df": 5685,
      "860": 5686,
      "374": 5687,
      "566": 5688,
      "560": 5689,
      "gettodaytotal": 5690,
      "281": 5691,
      "259": 5692,
      "397": 5693,
      "##527": 5694,
      "900": 5695,
      "965": 5696,
      "402": 5697,
      "411": 5698,
      "962": 5699,
      "306": 5700,
      "hi": 5701,
      "##remo": 5702,
      "291": 5703,
      "791": 5704,
      "mhwflags": 5705,
      "985": 5706,
      "401": 5707,
      "##animator": 5708,
      "904": 5709,
      "880": 5710,
      "##miz": 5711,
      "399": 5712,
      "##rozen": 5713,
      "296": 5714,
      "812": 5715,
      "2748": 5716,
      "460": 5717,
      "228": 5718,
      "2900": 5719,
      "##ures": 5720,
      "##745": 5721,
      "manager": 5722,
      "att": 5723,
      "##ipay": 5724,
      "453": 5725,
      "lcb": 5726,
      "metam": 5727,
      "##fd": 5728,
      "metamsg": 5729,
      "612": 5730,
      "##lecontroller": 5731,
      "906": 5732,
      "776": 5733,
      "##uist": 5734,
      "##uistyle": 5735,
      "813": 5736,
      "perform": 5737,
      "deviceidlecontroller": 5738,
      "updatelight": 5739,
      "0x00000000": 5740,
      "handlereceiver": 5741,
      "pushlog2821": 5742,
      "alipay": 5743,
      "865": 5744,
      "580": 5745,
      "676": 5746,
      "##ayout": 5747,
      "229": 5748,
      "2956": 5749,
      "starting": 5750,
      "749": 5751,
      "##icontint": 5752,
      "stackid": 5753,
      "taskrecord": 5754,
      "405": 5755,
      "schedule": 5756,
      "286": 5757,
      "hwnavigationbarview": 5758,
      "pgserver": 5759,
      "##plug": 5760,
      "##ught": 5761,
      "hwre": 5762,
      "##ainer": 5763,
      "clear": 5764,
      "954": 5765,
      "##endor": 5766,
      "001": 5767,
      "2577": 5768,
      "331": 5769,
      "mcontrolpoint2x": 5770,
      "mcontrolpoint2y": 5771,
      "mcontrolpoint1x": 5772,
      "mcontrolpoint1y": 5773,
      "backgroundreason": 5774,
      "755": 5775,
      "##xt": 5776,
      "##version": 5777,
      "sm": 5778,
      "277": 5779,
      "##core": 5780,
      "cannot": 5781,
      "##sl": 5782,
      "qcamera2": 5783,
      "##ingle": 5784,
      "693": 5785,
      "##isabled": 5786,
      "421": 5787,
      "##show": 5788,
      "locationmanagerservice": 5789,
      "hwphonestatusbarview": 5790,
      "##caught": 5791,
      "uncaught": 5792,
      "##li": 5793,
      "332": 5794,
      "sur": 5795,
      "wifistatereceiver": 5796,
      "591": 5797,
      "827": 5798,
      "775": 5799,
      "binderproxy": 5800,
      "notifylistener": 5801,
      "##bum": 5802,
      "1049": 5803,
      "##layout": 5804,
      "430": 5805,
      "local": 5806,
      "##br": 5807,
      "404": 5808,
      "747": 5809,
      "495": 5810,
      "hwpower": 5811,
      "620": 5812,
      "9999": 5813,
      "763": 5814,
      "652": 5815,
      "299": 5816,
      "622": 5817,
      "##emweather": 5818,
      "totemweather": 5819,
      "426": 5820,
      "2540": 5821,
      "ear": 5822,
      "##recent": 5823,
      "##api": 5824,
      "773": 5825,
      "psk": 5826,
      "##stall": 5827,
      "710": 5828,
      "2541": 5829,
      "288": 5830,
      "##fling": 5831,
      "##ause": 5832,
      "becf": 5833,
      "769": 5834,
      "msc": 5835,
      "##resident": 5836,
      "startupresident": 5837,
      "startupresidentservice": 5838,
      "succ": 5839,
      "728": 5840,
      "611": 5841,
      "828": 5842,
      "437": 5843,
      "447": 5844,
      "memory": 5845,
      "730": 5846,
      "700": 5847,
      "##acts": 5848,
      "2531": 5849,
      "innerhandler": 5850,
      "732": 5851,
      "##value": 5852,
      "detect": 5853,
      "004": 5854,
      "980": 5855,
      "datacache": 5856,
      "gettodaytotalsteps": 5857,
      "026": 5858,
      "##ached": 5859,
      "##tasks": 5860,
      "ro": 5861,
      "##appbroadcastqueue": 5862,
      "##forintent": 5863,
      "##appbroadcastqueueforintent": 5864,
      "doin": 5865,
      "005": 5866,
      "708": 5867,
      "161": 5868,
      "995": 5869,
      "21308394": 5870,
      "3153": 5871,
      "##locall": 5872,
      "##ntime": 5873,
      "534": 5874,
      "266": 5875,
      "3011": 5876,
      "vpn": 5877,
      "610": 5878,
      "848": 5879,
      "##ewindowmanager": 5880,
      "664": 5881,
      "734": 5882,
      "406": 5883,
      "##bd": 5884,
      "prevent": 5885,
      "kg": 5886,
      "735": 5887,
      "button": 5888,
      "hwnavigationbartransitions": 5889,
      "1115": 5890,
      "452": 5891,
      "##boo": 5892,
      "990": 5893,
      "sdcard": 5894,
      "##su": 5895,
      "##omiz": 5896,
      "667": 5897,
      "333": 5898,
      "ontr": 5899,
      "482": 5900,
      "repeatinterval": 5901,
      "420": 5902,
      "764": 5903,
      "830": 5904,
      "525": 5905,
      "345": 5906,
      "258": 5907,
      "996": 5908,
      "hwwifichrstatemanager": 5909,
      "links": 5910,
      "##utes": 5911,
      "370": 5912,
      "582": 5913,
      "695": 5914,
      "705": 5915,
      "##limit": 5916,
      "334": 5917,
      "565": 5918,
      "714": 5919,
      "##ina": 5920,
      "##absent": 5921,
      "hwlocall": 5922,
      "linkspeed": 5923,
      "hwlocallocation": 5924,
      "367": 5925,
      "587": 5926,
      "950": 5927,
      "002": 5928,
      "downtime": 5929,
      "metastate": 5930,
      "##subid": 5931,
      "530": 5932,
      "914": 5933,
      "513": 5934,
      "795": 5935,
      "text": 5936,
      "465": 5937,
      "##parent": 5938,
      "##proximitysensor": 5939,
      "805": 5940,
      "##vl": 5941,
      "gain": 5942,
      "##urity": 5943,
      "screenautobrightness": 5944,
      "useproximitysensor": 5945,
      "brightnesswait": 5946,
      "dozescreen": 5947,
      "##setting": 5948,
      "922": 5949,
      "##lel": 5950,
      "3397": 5951,
      "##enter": 5952,
      "550": 5953,
      "350": 5954,
      "485": 5955,
      "eg": 5956,
      "##ansact": 5957,
      "left": 5958,
      "ontransact": 5959,
      "581": 5960,
      "wakeup": 5961,
      "##pairhelper": 5962,
      "hwrepairhelper": 5963,
      "413": 5964,
      "789": 5965,
      "373": 5966,
      "mname": 5967,
      "694": 5968,
      "trafficpanelmanager": 5969,
      "hwlockscreen": 5970,
      "##hub": 5971,
      "wei": 5972,
      "654": 5973,
      "getaddr": 5974,
      "348": 5975,
      "hsp": 5976,
      "##ider": 5977,
      "counter": 5978,
      "618": 5979,
      "keycode": 5980,
      "356": 5981,
      "##itelist": 5982,
      "##astet": 5983,
      "538": 5984,
      "3382": 5985,
      "getaddrinfo": 5986,
      "809": 5987,
      "003": 5988,
      "extendstepdatamanager": 5989,
      "iscard": 5990,
      "##poolsize": 5991,
      "434": 5992,
      "905": 5993,
      "##statistic": 5994,
      "10129": 5995,
      "##ounce": 5996,
      "268": 5997,
      "force": 5998,
      "721": 5999
    }
  }
}